{
  "version": "1.0",
  "truncation": null,
  "padding": null,
  "added_tokens": [
    {
      "id": 0,
      "content": "[PAD]",
      "single_word": false,
      "lstrip": false,
      "rstrip": false,
      "normalized": false,
      "special": true
    },
    {
      "id": 1,
      "content": "[UNK]",
      "single_word": false,
      "lstrip": false,
      "rstrip": false,
      "normalized": false,
      "special": true
    },
    {
      "id": 2,
      "content": "[CLS]",
      "single_word": false,
      "lstrip": false,
      "rstrip": false,
      "normalized": false,
      "special": true
    },
    {
      "id": 3,
      "content": "[SEP]",
      "single_word": false,
      "lstrip": false,
      "rstrip": false,
      "normalized": false,
      "special": true
    },
    {
      "id": 4,
      "content": "[MASK]",
      "single_word": false,
      "lstrip": false,
      "rstrip": false,
      "normalized": false,
      "special": true
    }
  ],
  "normalizer": {
    "type": "BertNormalizer",
    "clean_text": true,
    "handle_chinese_chars": true,
    "strip_accents": false,
    "lowercase": false
  },
  "pre_tokenizer": {
    "type": "BertPreTokenizer"
  },
  "post_processor": {
    "type": "TemplateProcessing",
    "single": [
      {
        "SpecialToken": {
          "id": "[CLS]",
          "type_id": 0
        }
      },
      {
        "Sequence": {
          "id": "A",
          "type_id": 0
        }
      },
      {
        "SpecialToken": {
          "id": "[SEP]",
          "type_id": 0
        }
      }
    ],
    "pair": [
      {
        "SpecialToken": {
          "id": "[CLS]",
          "type_id": 0
        }
      },
      {
        "Sequence": {
          "id": "A",
          "type_id": 0
        }
      },
      {
        "SpecialToken": {
          "id": "[SEP]",
          "type_id": 0
        }
      },
      {
        "Sequence": {
          "id": "B",
          "type_id": 1
        }
      },
      {
        "SpecialToken": {
          "id": "[SEP]",
          "type_id": 1
        }
      }
    ],
    "special_tokens": {
      "[CLS]": {
        "id": "[CLS]",
        "ids": [
          2
        ],
        "tokens": [
          "[CLS]"
        ]
      },
      "[SEP]": {
        "id": "[SEP]",
        "ids": [
          3
        ],
        "tokens": [
          "[SEP]"
        ]
      }
    }
  },
  "decoder": {
    "type": "WordPiece",
    "prefix": "##",
    "cleanup": true
  },
  "model": {
    "type": "WordPiece",
    "unk_token": "[UNK]",
    "continuing_subword_prefix": "##",
    "max_input_chars_per_word": 100,
    "vocab": {
      "[PAD]": 0,
      "[UNK]": 1,
      "[CLS]": 2,
      "[SEP]": 3,
      "[MASK]": 4,
      "!": 5,
      "\"": 6,
      "#": 7,
      "$": 8,
      "%": 9,
      "&": 10,
      "'": 11,
      "(": 12,
      ")": 13,
      "*": 14,
      "+": 15,
      ",": 16,
      "-": 17,
      ".": 18,
      "/": 19,
      "0": 20,
      "1": 21,
      "2": 22,
      "3": 23,
      "4": 24,
      "5": 25,
      "6": 26,
      "7": 27,
      "8": 28,
      "9": 29,
      ":": 30,
      ";": 31,
      "<": 32,
      "=": 33,
      ">": 34,
      "?": 35,
      "@": 36,
      "A": 37,
      "B": 38,
      "C": 39,
      "D": 40,
      "E": 41,
      "F": 42,
      "G": 43,
      "H": 44,
      "I": 45,
      "J": 46,
      "K": 47,
      "L": 48,
      "M": 49,
      "N": 50,
      "O": 51,
      "P": 52,
      "Q": 53,
      "R": 54,
      "S": 55,
      "T": 56,
      "U": 57,
      "V": 58,
      "W": 59,
      "X": 60,
      "Y": 61,
      "Z": 62,
      "[": 63,
      "\\": 64,
      "]": 65,
      "^": 66,
      "_": 67,
      "a": 68,
      "b": 69,
      "c": 70,
      "d": 71,
      "e": 72,
      "f": 73,
      "g": 74,
      "h": 75,
      "i": 76,
      "j": 77,
      "k": 78,
      "l": 79,
      "m": 80,
      "n": 81,
      "o": 82,
      "p": 83,
      "q": 84,
      "r": 85,
      "s": 86,
      "t": 87,
      "u": 88,
      "v": 89,
      "w": 90,
      "x": 91,
      "y": 92,
      "z": 93,
      "{": 94,
      "|": 95,
      "}": 96,
      "~": 97,
      "£": 98,
      "¥": 99,
      "§": 100,
      "©": 101,
      "ª": 102,
      "«": 103,
      "¬": 104,
      "®": 105,
      "°": 106,
      "±": 107,
      "º": 108,
      "»": 109,
      "¾": 110,
      "¿": 111,
      "À": 112,
      "Â": 113,
      "Æ": 114,
      "Ç": 115,
      "È": 116,
      "É": 117,
      "Ê": 118,
      "Ë": 119,
      "Ì": 120,
      "Î": 121,
      "Ï": 122,
      "Ô": 123,
      "Ù": 124,
      "Ú": 125,
      "Û": 126,
      "Ü": 127,
      "Þ": 128,
      "ß": 129,
      "à": 130,
      "â": 131,
      "æ": 132,
      "ç": 133,
      "è": 134,
      "é": 135,
      "ê": 136,
      "ë": 137,
      "ì": 138,
      "í": 139,
      "î": 140,
      "ï": 141,
      "ô": 142,
      "ù": 143,
      "û": 144,
      "ü": 145,
      "þ": 146,
      "ÿ": 147,
      "Œ": 148,
      "œ": 149,
      "Ÿ": 150,
      "Ǿ": 151,
      "А": 152,
      "Б": 153,
      "З": 154,
      "И": 155,
      "а": 156,
      "б": 157,
      "е": 158,
      "з": 159,
      "и": 160,
      "р": 161,
      "с": 162,
      "ி": 163,
      "ಫ": 164,
      "ೊ": 165,
      "೾": 166,
      "෤": 167,
      "෫": 168,
      "ຩ": 169,
      "ຬ": 170,
      "຾": 171,
      "༱": 172,
      "—": 173,
      "‘": 174,
      "’": 175,
      "“": 176,
      "”": 177,
      "„": 178,
      "•": 179,
      "€": 180,
      "™": 181,
      "■": 182,
      "□": 183,
      "▲": 184,
      "►": 185,
      "▻": 186,
      "▼": 187,
      "◄": 188,
      "◦": 189,
      "★": 190,
      "☆": 191,
      "♦": 192,
      "✓": 193,
      "❖": 194,
      "『": 195,
      "뫜": 196,
      "뫞": 197,
      "쪬": 198,
      "２": 199,
      "Ｂ": 200,
      "ｂ": 201,
      "##r": 202,
      "##a": 203,
      "##e": 204,
      "##d": 205,
      "##l": 206,
      "##O": 207,
      "##o": 208,
      "##U": 209,
      "##è": 210,
      "##g": 211,
      "##s": 212,
      "##n": 213,
      "##t": 214,
      "##i": 215,
      "##k": 216,
      "##w": 217,
      "##y": 218,
      "##S": 219,
      "##u": 220,
      "##ï": 221,
      "##à": 222,
      "##c": 223,
      "##b": 224,
      "##m": 225,
      "##T": 226,
      "##v": 227,
      "##é": 228,
      "##R": 229,
      "##N": 230,
      "##f": 231,
      "##4": 232,
      "##ë": 233,
      "##1": 234,
      "##8": 235,
      "##9": 236,
      "##M": 237,
      "##p": 238,
      "##j": 239,
      "##î": 240,
      "##Ù": 241,
      "##H": 242,
      "##E": 243,
      "##G": 244,
      "##È": 245,
      "##K": 246,
      "##I": 247,
      "##B": 248,
      "##C": 249,
      "##q": 250,
      "##©": 251,
      "##ç": 252,
      "##â": 253,
      "##£": 254,
      "##W": 255,
      "##h": 256,
      "##Q": 257,
      "##É": 258,
      "##Ï": 259,
      "##ê": 260,
      "##J": 261,
      "##ù": 262,
      "##ü": 263,
      "##A": 264,
      "##X": 265,
      "##z": 266,
      "##L": 267,
      "##Y": 268,
      "##5": 269,
      "##2": 270,
      "##6": 271,
      "##ô": 272,
      "##x": 273,
      "##P": 274,
      "##F": 275,
      "##D": 276,
      "##0": 277,
      "##Î": 278,
      "##û": 279,
      "##V": 280,
      "##À": 281,
      "##Æ": 282,
      "##7": 283,
      "##■": 284,
      "##Û": 285,
      "##3": 286,
      "##Ë": 287,
      "##ÿ": 288,
      "##Ü": 289,
      "##Ô": 290,
      "##œ": 291,
      "##ß": 292,
      "##®": 293,
      "##Ê": 294,
      "##Â": 295,
      "##™": 296,
      "##°": 297,
      "##Ç": 298,
      "##Z": 299,
      "##Œ": 300,
      "##¥": 301,
      "##€": 302,
      "##±": 303,
      "##♦": 304,
      "##Ÿ": 305,
      "##æ": 306,
      "##★": 307,
      "##☆": 308,
      "##▼": 309,
      "##□": 310,
      "##►": 311,
      "##❖": 312,
      "##✓": 313,
      "##◦": 314,
      "##▲": 315,
      "##е": 316,
      "##Ì": 317,
      "##б": 318,
      "##Þ": 319,
      "##Ú": 320,
      "##Ｂ": 321,
      "##¾": 322,
      "##ຬ": 323,
      "##í": 324,
      "##а": 325,
      "##ｂ": 326,
      "##ì": 327,
      "##◄": 328,
      "##þ": 329,
      "##෤": 330,
      "##Ǿ": 331,
      "##º": 332,
      "##es": 333,
      "##nt": 334,
      "##on": 335,
      "de": 336,
      "##ou": 337,
      "##er": 338,
      "##re": 339,
      "##ai": 340,
      "##an": 341,
      "##ar": 342,
      "##is": 343,
      "##le": 344,
      "##ent": 345,
      "##ti": 346,
      "qu": 347,
      "la": 348,
      "##ur": 349,
      "##en": 350,
      "##ne": 351,
      "##te": 352,
      "et": 353,
      "le": 354,
      "##it": 355,
      "##or": 356,
      "##our": 357,
      "##om": 358,
      "##in": 359,
      "##ant": 360,
      "les": 361,
      "##qu": 362,
      "pr": 363,
      "##ie": 364,
      "en": 365,
      "au": 366,
      "##tion": 367,
      "##al": 368,
      "##il": 369,
      "des": 370,
      "##us": 371,
      "##ait": 372,
      "##ce": 373,
      "##el": 374,
      "##au": 375,
      "##ment": 376,
      "##as": 377,
      "du": 378,
      "##me": 379,
      "##oi": 380,
      "##és": 381,
      "##st": 382,
      "par": 383,
      "##ont": 384,
      "##ri": 385,
      "##ais": 386,
      "##ans": 387,
      "##ch": 388,
      "##ra": 389,
      "un": 390,
      "##res": 391,
      "av": 392,
      "que": 393,
      "##ous": 394,
      "dé": 395,
      "##et": 396,
      "##se": 397,
      "##li": 398,
      "il": 399,
      "##at": 400,
      "est": 401,
      "##eu": 402,
      "com": 403,
      "ét": 404,
      "qui": 405,
      "##ons": 406,
      "ch": 407,
      "une": 408,
      "##ci": 409,
      "##ée": 410,
      "re": 411,
      "##ran": 412,
      "##de": 413,
      "se": 414,
      "pour": 415,
      "##ag": 416,
      "##ation": 417,
      "##tre": 418,
      "##ui": 419,
      "##que": 420,
      "##os": 421,
      "dans": 422,
      "pl": 423,
      "##mp": 424,
      "##ol": 425,
      "##di": 426,
      "in": 427,
      "con": 428,
      "tr": 429,
      "##ouv": 430,
      "##ér": 431,
      "##lle": 432,
      "##les": 433,
      "##ier": 434,
      "pas": 435,
      "##ue": 436,
      "ré": 437,
      "##ion": 438,
      "##ff": 439,
      "pro": 440,
      "sur": 441,
      "##ir": 442,
      "##ab": 443,
      "##ère": 444,
      "##urs": 445,
      "ne": 446,
      "Le": 447,
      "##ès": 448,
      "##ec": 449,
      "##aire": 450,
      "##ois": 451,
      "##am": 452,
      "##ort": 453,
      "##pp": 454,
      "##end": 455,
      "##ux": 456,
      "##out": 457,
      "##ers": 458,
      "an": 459,
      "di": 460,
      "ex": 461,
      "##ien": 462,
      "ce": 463,
      "##ut": 464,
      "##ot": 465,
      "ar": 466,
      "plus": 467,
      "##ain": 468,
      "##ac": 469,
      "##ve": 470,
      "##ille": 471,
      "##pr": 472,
      "##oir": 473,
      "##ure": 474,
      "##and": 475,
      "##ité": 476,
      "ou": 477,
      "##00": 478,
      "##si": 479,
      "La": 480,
      "##ré": 481,
      "on": 482,
      "son": 483,
      "ac": 484,
      "si": 485,
      "##onn": 486,
      "##ge": 487,
      "sa": 488,
      "##un": 489,
      "##aux": 490,
      "##én": 491,
      "##ist": 492,
      "##ul": 493,
      "##ette": 494,
      "##elle": 495,
      "##ale": 496,
      "##mb": 497,
      "ser": 498,
      "##ces": 499,
      "##ro": 500,
      "avec": 501,
      "été": 502,
      "su": 503,
      "##té": 504,
      "##ard": 505,
      "aux": 506,
      "ont": 507,
      "Ch": 508,
      "##ours": 509,
      "##aient": 510,
      "Par": 511,
      "nous": 512,
      "##ig": 513,
      "##oy": 514,
      "##ic": 515,
      "##che": 516,
      "##ées": 517,
      "##ert": 518,
      "Les": 519,
      "ent": 520,
      "tout": 521,
      "##id": 522,
      "cont": 523,
      "sont": 524,
      "##mes": 525,
      "##age": 526,
      "50": 527,
      "Il": 528,
      "##iss": 529,
      "##ine": 530,
      "pu": 531,
      "##ques": 532,
      "##ll": 533,
      "comm": 534,
      "mar": 535,
      "fr": 536,
      "##ond": 537,
      "##ati": 538,
      "pré": 539,
      "##ap": 540,
      "##ance": 541,
      "##ES": 542,
      "int": 543,
      "##ens": 544,
      "##tt": 545,
      "app": 546,
      "##eur": 547,
      "elle": 548,
      "##mi": 549,
      "18": 550,
      "ses": 551,
      "cette": 552,
      "li": 553,
      "peu": 554,
      "##lé": 555,
      "comp": 556,
      "as": 557,
      "lui": 558,
      "##bre": 559,
      "##ay": 560,
      "pre": 561,
      "mais": 562,
      "fran": 563,
      "##ins": 564,
      "ad": 565,
      "##bli": 566,
      "##onne": 567,
      "dis": 568,
      "##cl": 569,
      "te": 570,
      "or": 571,
      "fait": 572,
      "so": 573,
      "vi": 574,
      "##oup": 575,
      "##tions": 576,
      "##vi": 577,
      "vous": 578,
      "Paris": 579,
      "es": 580,
      "##oc": 581,
      "##aint": 582,
      "##tes": 583,
      "avait": 584,
      "10": 585,
      "était": 586,
      "che": 587,
      "mê": 588,
      "19": 589,
      "##able": 590,
      "##op": 591,
      "gran": 592,
      "##ill": 593,
      "##teur": 594,
      "prés": 595,
      "##ations": 596,
      "mo": 597,
      "rue": 598,
      "leur": 599,
      "ces": 600,
      "##ord": 601,
      "##co": 602,
      "deux": 603,
      "##aires": 604,
      "dép": 605,
      "##uit": 606,
      "cons": 607,
      "nom": 608,
      "##ad": 609,
      "me": 610,
      "##ise": 611,
      "aut": 612,
      "##ts": 613,
      "Mar": 614,
      "##ique": 615,
      "être": 616,
      "bien": 617,
      "Fran": 618,
      "##use": 619,
      "##tu": 620,
      "##eau": 621,
      "res": 622,
      "##aine": 623,
      "tra": 624,
      "##ON": 625,
      "##ence": 626,
      "##av": 627,
      "min": 628,
      "##près": 629,
      "comme": 630,
      "tou": 631,
      "##ter": 632,
      "même": 633,
      "##pé": 634,
      "je": 635,
      "##ants": 636,
      "##man": 637,
      "no": 638,
      "On": 639,
      "##eux": 640,
      "11": 641,
      "do": 642,
      "po": 643,
      "##cu": 644,
      "gén": 645,
      "Et": 646,
      "##onc": 647,
      "imp": 648,
      "##gn": 649,
      "##ante": 650,
      "##mé": 651,
      "sans": 652,
      "ab": 653,
      "ma": 654,
      "##pu": 655,
      "parti": 656,
      "##cs": 657,
      "##éd": 658,
      "##ble": 659,
      "quel": 660,
      "##ouver": 661,
      "##iè": 662,
      "##dre": 663,
      "dev": 664,
      "jour": 665,
      "ter": 666,
      "Je": 667,
      "##nes": 668,
      "dont": 669,
      "for": 670,
      "tous": 671,
      "##ER": 672,
      "ra": 673,
      "##ii": 674,
      "où": 675,
      "##ments": 676,
      "ils": 677,
      "##ieu": 678,
      "##oul": 679,
      "##ru": 680,
      "000": 681,
      "##érie": 682,
      "25": 683,
      "sui": 684,
      "15": 685,
      "pri": 686,
      "ai": 687,
      "nouv": 688,
      "##ren": 689,
      "##ét": 690,
      "##fi": 691,
      "##ég": 692,
      "##AN": 693,
      "Un": 694,
      "vo": 695,
      "##ass": 696,
      "##oire": 697,
      "##omp": 698,
      "##ction": 699,
      "pe": 700,
      "der": 701,
      "ment": 702,
      "per": 703,
      "##ors": 704,
      "faire": 705,
      "##IS": 706,
      "##min": 707,
      "##ace": 708,
      "heur": 709,
      "ass": 710,
      "grand": 711,
      "gr": 712,
      "##ress": 713,
      "ju": 714,
      "##ang": 715,
      "ti": 716,
      "ans": 717,
      "sous": 718,
      "##mps": 719,
      "acc": 720,
      "##éra": 721,
      "après": 722,
      "am": 723,
      "##are": 724,
      "dire": 725,
      "att": 726,
      "DE": 727,
      "En": 728,
      "##agn": 729,
      "##ail": 730,
      "éc": 731,
      "##pos": 732,
      "heures": 733,
      "mon": 734,
      "rés": 735,
      "ann": 736,
      "Saint": 737,
      "entre": 738,
      "très": 739,
      "mil": 740,
      "##uer": 741,
      "##mand": 742,
      "contre": 743,
      "donn": 744,
      "##tr": 745,
      "##ver": 746,
      "##AR": 747,
      "Au": 748,
      "ca": 749,
      "emp": 750,
      "dit": 751,
      "cl": 752,
      "ag": 753,
      "12": 754,
      "##teurs": 755,
      "An": 756,
      "aur": 757,
      "aff": 758,
      "##vre": 759,
      "20": 760,
      "##ct": 761,
      "cour": 762,
      "##iers": 763,
      "##EN": 764,
      "ci": 765,
      "cel": 766,
      "mal": 767,
      "##ong": 768,
      "France": 769,
      "30": 770,
      "ob": 771,
      "##OU": 772,
      "##em": 773,
      "man": 774,
      "##og": 775,
      "ren": 776,
      "##aut": 777,
      "##par": 778,
      "##era": 779,
      "##aiss": 780,
      "##vers": 781,
      "##iste": 782,
      "##nement": 783,
      "##ieux": 784,
      "car": 785,
      "pos": 786,
      "##um": 787,
      "##éral": 788,
      "##ière": 789,
      "##çais": 790,
      "##ph": 791,
      "br": 792,
      "dés": 793,
      "hom": 794,
      "##uss": 795,
      "jus": 796,
      "##tin": 797,
      "##mbre": 798,
      "off": 799,
      "##ats": 800,
      "dern": 801,
      "##enir": 802,
      "##ues": 803,
      "eff": 804,
      "##jet": 805,
      "mé": 806,
      "col": 807,
      "##endant": 808,
      "##isse": 809,
      "cr": 810,
      "Mais": 811,
      "##oint": 812,
      "##ères": 813,
      "leurs": 814,
      "##ici": 815,
      "##ies": 816,
      "##ente": 817,
      "##core": 818,
      "là": 819,
      "seu": 820,
      "port": 821,
      "aus": 822,
      "repr": 823,
      "déc": 824,
      "##lement": 825,
      "##tement": 826,
      "##ôt": 827,
      "publi": 828,
      "ins": 829,
      "##if": 830,
      "pay": 831,
      "De": 832,
      "Al": 833,
      "##rent": 834,
      "gouver": 835,
      "##IN": 836,
      "part": 837,
      "##endre": 838,
      "##agne": 839,
      "##vent": 840,
      "al": 841,
      "francs": 842,
      "encore": 843,
      "jeu": 844,
      "rec": 845,
      "pers": 846,
      "co": 847,
      "fer": 848,
      "sec": 849,
      "peut": 850,
      "##ains": 851,
      "cor": 852,
      "##oule": 853,
      "##lè": 854,
      "##tte": 855,
      "avoir": 856,
      "13": 857,
      "exp": 858,
      "##ing": 859,
      "Ce": 860,
      "##ves": 861,
      "trois": 862,
      "##aî": 863,
      "##eure": 864,
      "autre": 865,
      "sera": 866,
      "sé": 867,
      "Mme": 868,
      "##elles": 869,
      "##erie": 870,
      "poli": 871,
      "##roit": 872,
      "pass": 873,
      "##RE": 874,
      "ouv": 875,
      "général": 876,
      "##im": 877,
      "mati": 878,
      "inter": 879,
      "nos": 880,
      "présid": 881,
      "75": 882,
      "fin": 883,
      "16": 884,
      "##orte": 885,
      "##tique": 886,
      "##ta": 887,
      "mes": 888,
      "Qu": 889,
      "##ches": 890,
      "Com": 891,
      "hier": 892,
      "toutes": 893,
      "lieu": 894,
      "fa": 895,
      "##tres": 896,
      "soir": 897,
      "14": 898,
      "##gl": 899,
      "##TI": 900,
      "##ges": 901,
      "ri": 902,
      "##ête": 903,
      "sou": 904,
      "##ures": 905,
      "déf": 906,
      "##ût": 907,
      "im": 908,
      "##oute": 909,
      "##vé": 910,
      "notre": 911,
      "##LE": 912,
      "##lles": 913,
      "toute": 914,
      "enf": 915,
      "##jour": 916,
      "ques": 917,
      "temps": 918,
      "ni": 919,
      "##ances": 920,
      "##éri": 921,
      "aussi": 922,
      "##cher": 923,
      "trav": 924,
      "eu": 925,
      "env": 926,
      "##itu": 927,
      "all": 928,
      "##puis": 929,
      "ret": 930,
      "##ions": 931,
      "cent": 932,
      "arri": 933,
      "point": 934,
      "conf": 935,
      "##rait": 936,
      "##pt": 937,
      "17": 938,
      "gar": 939,
      "fi": 940,
      "##cc": 941,
      "rép": 942,
      "##insi": 943,
      "##ales": 944,
      "fut": 945,
      "français": 946,
      "hui": 947,
      "Ar": 948,
      "##ission": 949,
      "tion": 950,
      "##lo": 951,
      "coup": 952,
      "rapp": 953,
      "char": 954,
      "mi": 955,
      "##ém": 956,
      "peti": 957,
      "conc": 958,
      "##istes": 959,
      "##art": 960,
      "##lan": 961,
      "##asse": 962,
      "##TE": 963,
      "##ition": 964,
      "##ez": 965,
      "##istre": 966,
      "##enu": 967,
      "##oci": 968,
      "trouv": 969,
      "Nous": 970,
      "##rib": 971,
      "##ose": 972,
      "ép": 973,
      "matin": 974,
      "nombre": 975,
      "##omb": 976,
      "##rit": 977,
      "prin": 978,
      "rég": 979,
      "cha": 980,
      "prix": 981,
      "##ob": 982,
      "##hé": 983,
      "pris": 984,
      "autres": 985,
      "##seil": 986,
      "##du": 987,
      "gra": 988,
      "##ult": 989,
      "##ités": 990,
      "éle": 991,
      "##mer": 992,
      "##enant": 993,
      "##ole": 994,
      "mont": 995,
      "pren": 996,
      "##aud": 997,
      "##été": 998,
      "quelques": 999,
      "##titu": 1000,
      "##oix": 1001,
      "moins": 1002,
      "##all": 1003,
      "mois": 1004,
      "jours": 1005,
      "##dic": 1006,
      "##ric": 1007,
      "In": 1008,
      "cours": 1009,
      "rel": 1010,
      "Ma": 1011,
      "pres": 1012,
      "avant": 1013,
      "sal": 1014,
      "##ages": 1015,
      "##olu": 1016,
      "##ner": 1017,
      "guer": 1018,
      "arr": 1019,
      "ainsi": 1020,
      "##ud": 1021,
      "gouvernement": 1022,
      "inf": 1023,
      "##gé": 1024,
      "conn": 1025,
      "long": 1026,
      "##int": 1027,
      "heure": 1028,
      "##oin": 1029,
      "pouv": 1030,
      "président": 1031,
      "##antes": 1032,
      "journ": 1033,
      "##rai": 1034,
      "40": 1035,
      "##fs": 1036,
      "prop": 1037,
      "soci": 1038,
      "##uses": 1039,
      "cap": 1040,
      "né": 1041,
      "cert": 1042,
      "##ché": 1043,
      "##mande": 1044,
      "non": 1045,
      "##êt": 1046,
      "ministre": 1047,
      "rem": 1048,
      "##oli": 1049,
      "##alité": 1050,
      "vers": 1051,
      "##ambre": 1052,
      "##cien": 1053,
      "fem": 1054,
      "##ate": 1055,
      "##ieurs": 1056,
      "droit": 1057,
      "décl": 1058,
      "##cip": 1059,
      "beau": 1060,
      "prem": 1061,
      "guerre": 1062,
      "##ger": 1063,
      "Une": 1064,
      "depuis": 1065,
      "soit": 1066,
      "##cid": 1067,
      "tu": 1068,
      "Con": 1069,
      "##ler": 1070,
      "ég": 1071,
      "prof": 1072,
      "inst": 1073,
      "##ourn": 1074,
      "##jourd": 1075,
      "st": 1076,
      "pays": 1077,
      "##rer": 1078,
      "grande": 1079,
      "demand": 1080,
      "rev": 1081,
      "Du": 1082,
      "Se": 1083,
      "##ables": 1084,
      "21": 1085,
      "vie": 1086,
      "place": 1087,
      "##pec": 1088,
      "##ade": 1089,
      "sy": 1090,
      "mer": 1091,
      "##ret": 1092,
      "cet": 1093,
      "##RI": 1094,
      "servi": 1095,
      "##ls": 1096,
      "Re": 1097,
      "vis": 1098,
      "chez": 1099,
      "Or": 1100,
      "puis": 1101,
      "##aill": 1102,
      "##lic": 1103,
      "##endu": 1104,
      "présent": 1105,
      "##igne": 1106,
      "ph": 1107,
      "ind": 1108,
      "100": 1109,
      "Dans": 1110,
      "MM": 1111,
      "##mière": 1112,
      "##uite": 1113,
      "asse": 1114,
      "60": 1115,
      "inc": 1116,
      "déj": 1117,
      "Pour": 1118,
      "##cle": 1119,
      "##rier": 1120,
      "préc": 1121,
      "##la": 1122,
      "Si": 1123,
      "##lég": 1124,
      "##amb": 1125,
      "##illes": 1126,
      "ver": 1127,
      "fois": 1128,
      "LA": 1129,
      "Ré": 1130,
      "##lu": 1131,
      "déb": 1132,
      "##iti": 1133,
      "22": 1134,
      "dou": 1135,
      "##duit": 1136,
      "##vant": 1137,
      "##ire": 1138,
      "étran": 1139,
      "##gan": 1140,
      "trans": 1141,
      "devant": 1142,
      "mai": 1143,
      "cin": 1144,
      "loi": 1145,
      "som": 1146,
      "##quel": 1147,
      "réun": 1148,
      "##rés": 1149,
      "##illet": 1150,
      "ay": 1151,
      "fort": 1152,
      "##jours": 1153,
      "indi": 1154,
      "45": 1155,
      "Elle": 1156,
      "##bles": 1157,
      "jusqu": 1158,
      "Ber": 1159,
      "disc": 1160,
      "##est": 1161,
      "##rie": 1162,
      "##aille": 1163,
      "##mis": 1164,
      "avons": 1165,
      "faut": 1166,
      "##aul": 1167,
      "##ents": 1168,
      "lég": 1169,
      "##tal": 1170,
      "##AL": 1171,
      "##ourg": 1172,
      "nation": 1173,
      "vient": 1174,
      "Mont": 1175,
      "23": 1176,
      "ceux": 1177,
      "##iens": 1178,
      "##ils": 1179,
      "arti": 1180,
      "représ": 1181,
      "##ia": 1182,
      "diff": 1183,
      "##IL": 1184,
      "##ense": 1185,
      "##AU": 1186,
      "##né": 1187,
      "étaient": 1188,
      "cré": 1189,
      "donc": 1190,
      "bon": 1191,
      "##lier": 1192,
      "##des": 1193,
      "toujours": 1194,
      "##pe": 1195,
      "met": 1196,
      "##dit": 1197,
      "##cep": 1198,
      "##èrent": 1199,
      "kil": 1200,
      "mom": 1201,
      "rien": 1202,
      "##aison": 1203,
      "fl": 1204,
      "hab": 1205,
      "suite": 1206,
      "##publi": 1207,
      "quat": 1208,
      "reç": 1209,
      "év": 1210,
      "500": 1211,
      "##ines": 1212,
      "ta": 1213,
      "sol": 1214,
      "##mée": 1215,
      "##ement": 1216,
      "lib": 1217,
      "déjà": 1218,
      "##erv": 1219,
      "aujourd": 1220,
      "homme": 1221,
      "commun": 1222,
      "sent": 1223,
      "##ze": 1224,
      "not": 1225,
      "sign": 1226,
      "voy": 1227,
      "##enue": 1228,
      "##ss": 1229,
      "vol": 1230,
      "près": 1231,
      "ap": 1232,
      "##he": 1233,
      "##main": 1234,
      "PAR": 1235,
      "##iter": 1236,
      "##mbl": 1237,
      "##une": 1238,
      "##onnes": 1239,
      "mort": 1240,
      "##aisse": 1241,
      "fé": 1242,
      "35": 1243,
      "minist": 1244,
      "##vis": 1245,
      "esp": 1246,
      "##tel": 1247,
      "fond": 1248,
      "##ps": 1249,
      "oc": 1250,
      "fai": 1251,
      "##ess": 1252,
      "##ienne": 1253,
      "serait": 1254,
      "moment": 1255,
      "const": 1256,
      "bat": 1257,
      "va": 1258,
      "moi": 1259,
      "demande": 1260,
      "St": 1261,
      "organ": 1262,
      "mis": 1263,
      "sc": 1264,
      "##ib": 1265,
      "voul": 1266,
      "at": 1267,
      "##cess": 1268,
      "##quer": 1269,
      "situ": 1270,
      "##ttre": 1271,
      "##alement": 1272,
      "premier": 1273,
      "jou": 1274,
      "80": 1275,
      "moy": 1276,
      "conseil": 1277,
      "adress": 1278,
      "##vement": 1279,
      "##az": 1280,
      "déclar": 1281,
      "ordre": 1282,
      "bar": 1283,
      "##ame": 1284,
      "dernier": 1285,
      "tant": 1286,
      "première": 1287,
      "24": 1288,
      "##ath": 1289,
      "Alle": 1290,
      "avaient": 1291,
      "can": 1292,
      "31": 1293,
      "Etat": 1294,
      "##ature": 1295,
      "##aise": 1296,
      "Ju": 1297,
      "doit": 1298,
      "##oût": 1299,
      "question": 1300,
      "ayant": 1301,
      "##ite": 1302,
      "pendant": 1303,
      "nouveau": 1304,
      "##cri": 1305,
      "elles": 1306,
      "##ration": 1307,
      "proc": 1308,
      "##vres": 1309,
      "etc": 1310,
      "##tit": 1311,
      "femme": 1312,
      "##ich": 1313,
      "spé": 1314,
      "celui": 1315,
      "Lou": 1316,
      "Mlle": 1317,
      "vic": 1318,
      "rep": 1319,
      "##UR": 1320,
      "##eaux": 1321,
      "##val": 1322,
      "Tr": 1323,
      "représent": 1324,
      "cas": 1325,
      "##IE": 1326,
      "##ième": 1327,
      "tre": 1328,
      "celle": 1329,
      "Jean": 1330,
      "pai": 1331,
      "28": 1332,
      "alle": 1333,
      "##IT": 1334,
      "##UE": 1335,
      "Cette": 1336,
      "##orm": 1337,
      "##qué": 1338,
      "cher": 1339,
      "milli": 1340,
      "ban": 1341,
      "maint": 1342,
      "Des": 1343,
      "##ram": 1344,
      "##ign": 1345,
      "##mble": 1346,
      "##be": 1347,
      "propos": 1348,
      "effet": 1349,
      "cir": 1350,
      "##OR": 1351,
      "art": 1352,
      "état": 1353,
      "##ari": 1354,
      "pa": 1355,
      "lit": 1356,
      "cri": 1357,
      "direc": 1358,
      "étab": 1359,
      "##ètres": 1360,
      "##amais": 1361,
      "##ots": 1362,
      "27": 1363,
      "##uis": 1364,
      "ven": 1365,
      "voir": 1366,
      "ville": 1367,
      "##OM": 1368,
      "Dé": 1369,
      "##gne": 1370,
      "trop": 1371,
      "##anv": 1372,
      "##rée": 1373,
      "##qui": 1374,
      "cô": 1375,
      "commer": 1376,
      "##ril": 1377,
      "##esse": 1378,
      "pat": 1379,
      "##iel": 1380,
      "dom": 1381,
      "id": 1382,
      "Car": 1383,
      "##ug": 1384,
      "hommes": 1385,
      "partie": 1386,
      "dém": 1387,
      "##od": 1388,
      "veu": 1389,
      "doc": 1390,
      "##tif": 1391,
      "projet": 1392,
      "##voir": 1393,
      "##nent": 1394,
      "Gran": 1395,
      "##gent": 1396,
      "##isme": 1397,
      "quatre": 1398,
      "##ises": 1399,
      "##enne": 1400,
      "cond": 1401,
      "capit": 1402,
      "milit": 1403,
      "piè": 1404,
      "œu": 1405,
      "##AT": 1406,
      "##ront": 1407,
      "26": 1408,
      "##aines": 1409,
      "eux": 1410,
      "##ieur": 1411,
      "reg": 1412,
      "##anc": 1413,
      "préf": 1414,
      "##sible": 1415,
      "proch": 1416,
      "ouvri": 1417,
      "##gr": 1418,
      "empl": 1419,
      "aura": 1420,
      "##OUR": 1421,
      "éch": 1422,
      "##ENT": 1423,
      "té": 1424,
      "import": 1425,
      "succ": 1426,
      "chef": 1427,
      "nouvelle": 1428,
      "##NE": 1429,
      "intér": 1430,
      "II": 1431,
      "##vo": 1432,
      "ord": 1433,
      "seront": 1434,
      "##lus": 1435,
      "er": 1436,
      "jeune": 1437,
      "Char": 1438,
      "LE": 1439,
      "##ron": 1440,
      "quand": 1441,
      "monde": 1442,
      "bles": 1443,
      "princip": 1444,
      "sub": 1445,
      "fam": 1446,
      "ancien": 1447,
      "lors": 1448,
      "##pte": 1449,
      "personne": 1450,
      "tit": 1451,
      "##CH": 1452,
      "##usse": 1453,
      "##gle": 1454,
      "mun": 1455,
      "votre": 1456,
      "##TION": 1457,
      "Soci": 1458,
      "cela": 1459,
      "##éren": 1460,
      "tour": 1461,
      "Es": 1462,
      "cou": 1463,
      "comb": 1464,
      "op": 1465,
      "##aître": 1466,
      "dess": 1467,
      "assez": 1468,
      "fra": 1469,
      "##issement": 1470,
      "##tant": 1471,
      "##ili": 1472,
      "##ds": 1473,
      "alors": 1474,
      "##rig": 1475,
      "pens": 1476,
      "##ile": 1477,
      "##çon": 1478,
      "189": 1479,
      "tes": 1480,
      "Ren": 1481,
      "actu": 1482,
      "##illeurs": 1483,
      "jamais": 1484,
      "appel": 1485,
      "midi": 1486,
      "Pri": 1487,
      "Th": 1488,
      "laiss": 1489,
      "plusieurs": 1490,
      "aurait": 1491,
      "politique": 1492,
      "##onde": 1493,
      "trait": 1494,
      "##héâ": 1495,
      "fais": 1496,
      "CH": 1497,
      "##ma": 1498,
      "##tier": 1499,
      "##ern": 1500,
      "##ry": 1501,
      "##iques": 1502,
      "maison": 1503,
      "191": 1504,
      "donner": 1505,
      "##érale": 1506,
      "supp": 1507,
      "29": 1508,
      "contin": 1509,
      "hô": 1510,
      "##mple": 1511,
      "service": 1512,
      "##ué": 1513,
      "public": 1514,
      "pi": 1515,
      "atta": 1516,
      "##port": 1517,
      "quelque": 1518,
      "Chambre": 1519,
      "##lin": 1520,
      "ET": 1521,
      "##ore": 1522,
      "dix": 1523,
      "bonne": 1524,
      "##ène": 1525,
      "190": 1526,
      "##let": 1527,
      "consid": 1528,
      "porte": 1529,
      "spéci": 1530,
      "rapport": 1531,
      "rent": 1532,
      "année": 1533,
      "remp": 1534,
      "sau": 1535,
      "##quet": 1536,
      "commission": 1537,
      "##isation": 1538,
      "réf": 1539,
      "lu": 1540,
      "192": 1541,
      "répond": 1542,
      "plac": 1543,
      "Comp": 1544,
      "donné": 1545,
      "voit": 1546,
      "men": 1547,
      "##coup": 1548,
      "##ingt": 1549,
      "circ": 1550,
      "##ouss": 1551,
      "oct": 1552,
      "rend": 1553,
      "suiv": 1554,
      "##lie": 1555,
      "mars": 1556,
      "cinq": 1557,
      "##ème": 1558,
      "avril": 1559,
      "##CE": 1560,
      "obli": 1561,
      "ple": 1562,
      "souv": 1563,
      "prendre": 1564,
      "70": 1565,
      "chaque": 1566,
      "série": 1567,
      "##isé": 1568,
      "##cier": 1569,
      "##len": 1570,
      "Br": 1571,
      "Gu": 1572,
      "travail": 1573,
      "##II": 1574,
      "bas": 1575,
      "##vée": 1576,
      "Pe": 1577,
      "occu": 1578,
      "vale": 1579,
      "##rique": 1580,
      "##ellement": 1581,
      "autor": 1582,
      "32": 1583,
      "aj": 1584,
      "##oux": 1585,
      "##fl": 1586,
      "juillet": 1587,
      "##aît": 1588,
      "##resse": 1589,
      "##RAN": 1590,
      "##SE": 1591,
      "##minist": 1592,
      "lo": 1593,
      "soi": 1594,
      "##ice": 1595,
      "main": 1596,
      "Su": 1597,
      "##orti": 1598,
      "ve": 1599,
      "Nord": 1600,
      "Bar": 1601,
      "##act": 1602,
      "##usement": 1603,
      "##fin": 1604,
      "cal": 1605,
      "dét": 1606,
      "angl": 1607,
      "Sa": 1608,
      "Société": 1609,
      "colon": 1610,
      "##anvier": 1611,
      "33": 1612,
      "Ex": 1613,
      "##urent": 1614,
      "##va": 1615,
      "##ende": 1616,
      "eng": 1617,
      "gu": 1618,
      "##raph": 1619,
      "41": 1620,
      "##ient": 1621,
      "us": 1622,
      "nécess": 1623,
      "##erne": 1624,
      "bou": 1625,
      "vue": 1626,
      "##aute": 1627,
      "assur": 1628,
      "##RA": 1629,
      "ext": 1630,
      "##cun": 1631,
      "nu": 1632,
      "abs": 1633,
      "##oles": 1634,
      "mus": 1635,
      "##sions": 1636,
      "DU": 1637,
      "##anger": 1638,
      "particu": 1639,
      "##ane": 1640,
      "##cole": 1641,
      "No": 1642,
      "déput": 1643,
      "Ban": 1644,
      "sup": 1645,
      "Ge": 1646,
      "90": 1647,
      "37": 1648,
      "ess": 1649,
      "contr": 1650,
      "écl": 1651,
      "Louis": 1652,
      "48": 1653,
      "##obre": 1654,
      "rou": 1655,
      "##ières": 1656,
      "Ne": 1657,
      "rece": 1658,
      "août": 1659,
      "ici": 1660,
      "Lé": 1661,
      "nuit": 1662,
      "beaucoup": 1663,
      "Vous": 1664,
      "ir": 1665,
      "PARIS": 1666,
      "da": 1667,
      "Ro": 1668,
      "ref": 1669,
      "seulement": 1670,
      "voix": 1671,
      "##oit": 1672,
      "ense": 1673,
      "tomb": 1674,
      "étrang": 1675,
      "corps": 1676,
      "##mbres": 1677,
      "Ils": 1678,
      "##ft": 1679,
      "##ustr": 1680,
      "##olution": 1681,
      "##io": 1682,
      "##oss": 1683,
      "feu": 1684,
      "diman": 1685,
      "Pr": 1686,
      "##œur": 1687,
      "bure": 1688,
      "##oupe": 1689,
      "situation": 1690,
      "trib": 1691,
      "##onneur": 1692,
      "Hen": 1693,
      "na": 1694,
      "compte": 1695,
      "maj": 1696,
      "193": 1697,
      "##quelle": 1698,
      "43": 1699,
      "##érieur": 1700,
      "réc": 1701,
      "tions": 1702,
      "47": 1703,
      "##ange": 1704,
      "##prit": 1705,
      "dès": 1706,
      "##ât": 1707,
      "inté": 1708,
      "188": 1709,
      "accord": 1710,
      "##ierre": 1711,
      "##tiques": 1712,
      "Ly": 1713,
      "mat": 1714,
      "plu": 1715,
      "Lond": 1716,
      "vrai": 1717,
      "tri": 1718,
      "form": 1719,
      "laquelle": 1720,
      "maî": 1721,
      "Di": 1722,
      "obs": 1723,
      "##oici": 1724,
      "Mal": 1725,
      "##ève": 1726,
      "ém": 1727,
      "##magne": 1728,
      "Cha": 1729,
      "##fe": 1730,
      "sait": 1731,
      "reconn": 1732,
      "Bour": 1733,
      "administ": 1734,
      "bless": 1735,
      "##RES": 1736,
      "##ande": 1737,
      "police": 1738,
      "Co": 1739,
      "seul": 1740,
      "51": 1741,
      "Cour": 1742,
      "##péra": 1743,
      "reste": 1744,
      "##héâtre": 1745,
      "vér": 1746,
      "divers": 1747,
      "187": 1748,
      "dispos": 1749,
      "55": 1750,
      "##roy": 1751,
      "mari": 1752,
      "##ôle": 1753,
      "Après": 1754,
      "##air": 1755,
      "38": 1756,
      "atte": 1757,
      "lé": 1758,
      "juin": 1759,
      "comte": 1760,
      "fonc": 1761,
      "sujet": 1762,
      "##rage": 1763,
      "##gré": 1764,
      "française": 1765,
      "petit": 1766,
      "rap": 1767,
      "affaires": 1768,
      "offici": 1769,
      "##ns": 1770,
      "42": 1771,
      "##ys": 1772,
      "arrê": 1773,
      "dra": 1774,
      "dernière": 1775,
      "armée": 1776,
      "mod": 1777,
      "##éré": 1778,
      "##oud": 1779,
      "siè": 1780,
      "##once": 1781,
      "49": 1782,
      "cé": 1783,
      "##bourg": 1784,
      "Londres": 1785,
      "##ni": 1786,
      "##ctions": 1787,
      "condi": 1788,
      "ait": 1789,
      "Cl": 1790,
      "44": 1791,
      "##cune": 1792,
      "Tout": 1793,
      "fille": 1794,
      "gl": 1795,
      "neu": 1796,
      "honneur": 1797,
      "##ateur": 1798,
      "ailleurs": 1799,
      "36": 1800,
      "##pect": 1801,
      "Est": 1802,
      "quar": 1803,
      "##pendant": 1804,
      "puiss": 1805,
      "46": 1806,
      "##publique": 1807,
      "##amment": 1808,
      "ii": 1809,
      "raison": 1810,
      "##iser": 1811,
      "##iles": 1812,
      "##agnie": 1813,
      "fit": 1814,
      "succès": 1815,
      "ru": 1816,
      "bal": 1817,
      "générale": 1818,
      "nature": 1819,
      "##ect": 1820,
      "##oupes": 1821,
      "tent": 1822,
      "millions": 1823,
      "Bel": 1824,
      "##ilité": 1825,
      "tir": 1826,
      "octobre": 1827,
      "Seine": 1828,
      "aucun": 1829,
      "instru": 1830,
      "Allemagne": 1831,
      "résult": 1832,
      "##rét": 1833,
      "##bert": 1834,
      "prom": 1835,
      "bre": 1836,
      "##itions": 1837,
      "amé": 1838,
      "Rou": 1839,
      "social": 1840,
      "suff": 1841,
      "doute": 1842,
      "Sal": 1843,
      "AU": 1844,
      "Ces": 1845,
      "mand": 1846,
      "six": 1847,
      "Ca": 1848,
      "pop": 1849,
      "accomp": 1850,
      "Prix": 1851,
      "##ptembre": 1852,
      "déce": 1853,
      "assist": 1854,
      "vingt": 1855,
      "action": 1856,
      "bes": 1857,
      "membres": 1858,
      "ens": 1859,
      "parf": 1860,
      "DES": 1861,
      "esprit": 1862,
      "produit": 1863,
      "##RO": 1864,
      "dév": 1865,
      "##iller": 1866,
      "cer": 1867,
      "exé": 1868,
      "##lir": 1869,
      "salle": 1870,
      "##ime": 1871,
      "abord": 1872,
      "pouvoir": 1873,
      "janvier": 1874,
      "Paul": 1875,
      "conv": 1876,
      "39": 1877,
      "décid": 1878,
      "##âte": 1879,
      "mor": 1880,
      "##ome": 1881,
      "##ression": 1882,
      "##ide": 1883,
      "occ": 1884,
      "##icip": 1885,
      "côté": 1886,
      "##lière": 1887,
      "Col": 1888,
      "##ards": 1889,
      "Gr": 1890,
      "tête": 1891,
      "mieux": 1892,
      "boule": 1893,
      "roi": 1894,
      "##ast": 1895,
      "reçu": 1896,
      "##ville": 1897,
      "lie": 1898,
      "ia": 1899,
      "##tout": 1900,
      "suis": 1901,
      "##alais": 1902,
      "mètres": 1903,
      "fix": 1904,
      "envoy": 1905,
      "##ieuse": 1906,
      "paix": 1907,
      "##one": 1908,
      "journal": 1909,
      "##CI": 1910,
      "quit": 1911,
      "écri": 1912,
      "##AI": 1913,
      "##pond": 1914,
      "##AG": 1915,
      "nouvelles": 1916,
      "##ple": 1917,
      "march": 1918,
      "##els": 1919,
      "disp": 1920,
      "esc": 1921,
      "sais": 1922,
      "Mi": 1923,
      "##quis": 1924,
      "##êts": 1925,
      "Ph": 1926,
      "but": 1927,
      "##cé": 1928,
      "##cre": 1929,
      "huit": 1930,
      "ant": 1931,
      "lettre": 1932,
      "65": 1933,
      "Conseil": 1934,
      "34": 1935,
      "jeunes": 1936,
      "Mon": 1937,
      "##vin": 1938,
      "##roi": 1939,
      "##tice": 1940,
      "Pro": 1941,
      "Aut": 1942,
      "##éro": 1943,
      "##atis": 1944,
      "terre": 1945,
      "##ME": 1946,
      "##iv": 1947,
      "obt": 1948,
      "##asion": 1949,
      "Français": 1950,
      "Av": 1951,
      "Ital": 1952,
      "##ération": 1953,
      "##éné": 1954,
      "envir": 1955,
      "blan": 1956,
      "##clam": 1957,
      "##terre": 1958,
      "appar": 1959,
      "Angle": 1960,
      "##vrier": 1961,
      "chambre": 1962,
      "juge": 1963,
      "Ad": 1964,
      "offic": 1965,
      "Cor": 1966,
      "##uire": 1967,
      "##AS": 1968,
      "ach": 1969,
      "##uré": 1970,
      "table": 1971,
      "aucune": 1972,
      "##ttes": 1973,
      "loc": 1974,
      "lar": 1975,
      "cpt": 1976,
      "opp": 1977,
      "Geor": 1978,
      "Sur": 1979,
      "bl": 1980,
      "décembre": 1981,
      "##mment": 1982,
      "ministère": 1983,
      "major": 1984,
      "##oh": 1985,
      "également": 1986,
      "allemand": 1987,
      "septembre": 1988,
      "dépar": 1989,
      "propri": 1990,
      "œuvre": 1991,
      "sac": 1992,
      "dimanche": 1993,
      "##OT": 1994,
      "52": 1995,
      "perme": 1996,
      "séance": 1997,
      "eau": 1998,
      "enfants": 1999,
      "##ah": 2000,
      "pie": 2001,
      "##QUE": 2002,
      "employ": 2003,
      "##vard": 2004,
      "commerce": 2005,
      "popul": 2006,
      "impos": 2007,
      "##érieure": 2008,
      "grands": 2009,
      "##gu": 2010,
      "##ète": 2011,
      "nove": 2012,
      "belle": 2013,
      "##AIS": 2014,
      "##EL": 2015,
      "fils": 2016,
      "sem": 2017,
      "pron": 2018,
      "##ber": 2019,
      "##OL": 2020,
      "##ention": 2021,
      "corres": 2022,
      "camp": 2023,
      "lut": 2024,
      "travaux": 2025,
      "##ustrie": 2026,
      "##uve": 2027,
      "ie": 2028,
      "mettre": 2029,
      "gros": 2030,
      "parce": 2031,
      "vendre": 2032,
      "##ardin": 2033,
      "##médi": 2034,
      "équi": 2035,
      "remar": 2036,
      "##ême": 2037,
      "sp": 2038,
      "doi": 2039,
      "secrét": 2040,
      "République": 2041,
      "aug": 2042,
      "##tie": 2043,
      "LES": 2044,
      "85": 2045,
      "##ras": 2046,
      "Pierre": 2047,
      "manif": 2048,
      "##erté": 2049,
      "##ndic": 2050,
      "ouvriers": 2051,
      "##DI": 2052,
      "##adi": 2053,
      "hist": 2054,
      "prog": 2055,
      "prob": 2056,
      "##ative": 2057,
      "famille": 2058,
      "200": 2059,
      "por": 2060,
      "trouver": 2061,
      "cause": 2062,
      "##ades": 2063,
      "surtout": 2064,
      "command": 2065,
      "ble": 2066,
      "dist": 2067,
      "ten": 2068,
      "##érer": 2069,
      "##gue": 2070,
      "##nte": 2071,
      "cab": 2072,
      "donne": 2073,
      "Lu": 2074,
      "##urop": 2075,
      "voyage": 2076,
      "publique": 2077,
      "##ris": 2078,
      "rendre": 2079,
      "##auv": 2080,
      "pare": 2081,
      "seule": 2082,
      "Banque": 2083,
      "nég": 2084,
      "pours": 2085,
      "prochain": 2086,
      "écrit": 2087,
      "Bou": 2088,
      "##tor": 2089,
      "font": 2090,
      "étu": 2091,
      "##onom": 2092,
      "expé": 2093,
      "affaire": 2094,
      "compren": 2095,
      "petite": 2096,
      "##érence": 2097,
      "délég": 2098,
      "##iment": 2099,
      "##ager": 2100,
      "municip": 2101,
      "exer": 2102,
      "##DE": 2103,
      "occup": 2104,
      "jet": 2105,
      "##rs": 2106,
      "mot": 2107,
      "And": 2108,
      "ensuite": 2109,
      "expos": 2110,
      "##oires": 2111,
      "père": 2112,
      "commen": 2113,
      "Pl": 2114,
      "mét": 2115,
      "##ori": 2116,
      "##ailles": 2117,
      "sold": 2118,
      "gens": 2119,
      "deme": 2120,
      "vot": 2121,
      "dû": 2122,
      "sort": 2123,
      "article": 2124,
      "novembre": 2125,
      "peine": 2126,
      "##glise": 2127,
      "adresser": 2128,
      "yeux": 2129,
      "##onsieur": 2130,
      "##cont": 2131,
      "Esp": 2132,
      "ligne": 2133,
      "##US": 2134,
      "militaire": 2135,
      "##inet": 2136,
      "##ateurs": 2137,
      "tém": 2138,
      "directeur": 2139,
      "##êtes": 2140,
      "##pl": 2141,
      "fac": 2142,
      "##èle": 2143,
      "##nts": 2144,
      "vu": 2145,
      "personnes": 2146,
      "somme": 2147,
      "##orde": 2148,
      "##oses": 2149,
      "val": 2150,
      "##mar": 2151,
      "semble": 2152,
      "ress": 2153,
      "chose": 2154,
      "##men": 2155,
      "oblig": 2156,
      "rè": 2157,
      "trouve": 2158,
      "ami": 2159,
      "condam": 2160,
      "anglais": 2161,
      "Angleterre": 2162,
      "Me": 2163,
      "longue": 2164,
      "intérêt": 2165,
      "##mblée": 2166,
      "##oiss": 2167,
      "##ann": 2168,
      "##ell": 2169,
      "##icile": 2170,
      "##ribu": 2171,
      "avez": 2172,
      "vent": 2173,
      "pou": 2174,
      "établ": 2175,
      "##pi": 2176,
      "nommé": 2177,
      "##urant": 2178,
      "liv": 2179,
      "réunion": 2180,
      "étant": 2181,
      "dem": 2182,
      "cul": 2183,
      "moyen": 2184,
      "exam": 2185,
      "amb": 2186,
      "emb": 2187,
      "front": 2188,
      "mouv": 2189,
      "95": 2190,
      "##ppe": 2191,
      "53": 2192,
      "##vid": 2193,
      "inv": 2194,
      "air": 2195,
      "Per": 2196,
      "##crip": 2197,
      "classe": 2198,
      "El": 2199,
      "gau": 2200,
      "##ramme": 2201,
      "années": 2202,
      "th": 2203,
      "##inc": 2204,
      "cam": 2205,
      "##oure": 2206,
      "compos": 2207,
      "sens": 2208,
      "##rat": 2209,
      "##œu": 2210,
      "février": 2211,
      "##oign": 2212,
      "occasion": 2213,
      "Marse": 2214,
      "intéress": 2215,
      "##iennent": 2216,
      "él": 2217,
      "argent": 2218,
      "##OI": 2219,
      "##llement": 2220,
      "Ville": 2221,
      "objet": 2222,
      "##rière": 2223,
      "##cident": 2224,
      "##ANT": 2225,
      "ha": 2226,
      "##its": 2227,
      "Jac": 2228,
      "rense": 2229,
      "##iff": 2230,
      "##yp": 2231,
      "ouvert": 2232,
      "sus": 2233,
      "##ôme": 2234,
      "prév": 2235,
      "concours": 2236,
      "##itation": 2237,
      "demain": 2238,
      "Russ": 2239,
      "##ences": 2240,
      "mêmes": 2241,
      "EN": 2242,
      "presque": 2243,
      "constitu": 2244,
      "Tous": 2245,
      "##oie": 2246,
      "##inaire": 2247,
      "tend": 2248,
      "##th": 2249,
      "Ou": 2250,
      "bureau": 2251,
      "##ode": 2252,
      "##pris": 2253,
      "exe": 2254,
      "confi": 2255,
      "uti": 2256,
      "##OS": 2257,
      "troupes": 2258,
      "enfin": 2259,
      "force": 2260,
      "##vait": 2261,
      "acti": 2262,
      "Del": 2263,
      "commiss": 2264,
      "##bl": 2265,
      "faite": 2266,
      "Cons": 2267,
      "enne": 2268,
      "trou": 2269,
      "##otte": 2270,
      "##undi": 2271,
      "##édé": 2272,
      "courant": 2273,
      "sommes": 2274,
      "##LES": 2275,
      "##celle": 2276,
      "##ède": 2277,
      "correspond": 2278,
      "##elo": 2279,
      "##fic": 2280,
      "Am": 2281,
      "réal": 2282,
      "retour": 2283,
      "##bé": 2284,
      "##ussi": 2285,
      "Cré": 2286,
      "devoir": 2287,
      "mag": 2288,
      "hon": 2289,
      "vit": 2290,
      "##pit": 2291,
      "pièce": 2292,
      "##ogne": 2293,
      "mille": 2294,
      "##cles": 2295,
      "adop": 2296,
      "##oncé": 2297,
      "##ov": 2298,
      "garde": 2299,
      "terr": 2300,
      "malh": 2301,
      "sour": 2302,
      "##ivers": 2303,
      "élè": 2304,
      "same": 2305,
      "##atique": 2306,
      "Mad": 2307,
      "##ATION": 2308,
      "##dition": 2309,
      "##cteurs": 2310,
      "gagn": 2311,
      "##tent": 2312,
      "##MENT": 2313,
      "transport": 2314,
      "62": 2315,
      "##aissance": 2316,
      "prince": 2317,
      "parmi": 2318,
      "##veur": 2319,
      "Journ": 2320,
      "sept": 2321,
      "combat": 2322,
      "Int": 2323,
      "bord": 2324,
      "qualité": 2325,
      "possible": 2326,
      "##avre": 2327,
      "##ionn": 2328,
      "eut": 2329,
      "veut": 2330,
      "bi": 2331,
      "##êche": 2332,
      "rév": 2333,
      "déli": 2334,
      "##orme": 2335,
      "vois": 2336,
      "##get": 2337,
      "##mens": 2338,
      "##fois": 2339,
      "dépos": 2340,
      "Lyon": 2341,
      "complè": 2342,
      "Vic": 2343,
      "ur": 2344,
      "tard": 2345,
      "##él": 2346,
      "##vient": 2347,
      "chemin": 2348,
      "##arm": 2349,
      "préfet": 2350,
      "##ach": 2351,
      "sang": 2352,
      "##vil": 2353,
      "##erait": 2354,
      "186": 2355,
      "conditions": 2356,
      "gouverne": 2357,
      "chev": 2358,
      "##aite": 2359,
      "boulevard": 2360,
      "Etats": 2361,
      "termin": 2362,
      "##ussion": 2363,
      "##ites": 2364,
      "##oni": 2365,
      "bud": 2366,
      "réser": 2367,
      "quoi": 2368,
      "##oins": 2369,
      "route": 2370,
      "##cul": 2371,
      "pén": 2372,
      "cat": 2373,
      "rempl": 2374,
      "pau": 2375,
      "##mn": 2376,
      "56": 2377,
      "##eront": 2378,
      "économ": 2379,
      "Marie": 2380,
      "volont": 2381,
      "maintenant": 2382,
      "##ception": 2383,
      "##ral": 2384,
      "viole": 2385,
      "amis": 2386,
      "##titude": 2387,
      "Te": 2388,
      "second": 2389,
      "##âce": 2390,
      "méde": 2391,
      "docteur": 2392,
      "secrétaire": 2393,
      "Port": 2394,
      "gare": 2395,
      "nationale": 2396,
      "Cr": 2397,
      "##grès": 2398,
      "consé": 2399,
      "poss": 2400,
      "liberté": 2401,
      "54": 2402,
      "AN": 2403,
      "peuvent": 2404,
      "grandes": 2405,
      "avis": 2406,
      "façon": 2407,
      "##ln": 2408,
      "##ilà": 2409,
      "##iiii": 2410,
      "Marseille": 2411,
      "em": 2412,
      "concl": 2413,
      "loin": 2414,
      "nombreux": 2415,
      "nou": 2416,
      "région": 2417,
      "cœur": 2418,
      "##ouvert": 2419,
      "théâtre": 2420,
      "##tien": 2421,
      "As": 2422,
      "##onst": 2423,
      "sant": 2424,
      "##gique": 2425,
      "ferme": 2426,
      "Grand": 2427,
      "passé": 2428,
      "béné": 2429,
      "satis": 2430,
      "vos": 2431,
      "##AM": 2432,
      "journaux": 2433,
      "tribun": 2434,
      "rendu": 2435,
      "Be": 2436,
      "##action": 2437,
      "aller": 2438,
      "Que": 2439,
      "Beau": 2440,
      "républi": 2441,
      "mère": 2442,
      "dessus": 2443,
      "##EU": 2444,
      "00": 2445,
      "is": 2446,
      "##nel": 2447,
      "vente": 2448,
      "départ": 2449,
      "COM": 2450,
      "marché": 2451,
      "63": 2452,
      "##aie": 2453,
      "gard": 2454,
      "élect": 2455,
      "##IER": 2456,
      "61": 2457,
      "demi": 2458,
      "##itable": 2459,
      "Ac": 2460,
      "##alités": 2461,
      "titre": 2462,
      "samedi": 2463,
      "savoir": 2464,
      "Tur": 2465,
      "souff": 2466,
      "faits": 2467,
      "augment": 2468,
      "##uil": 2469,
      "sion": 2470,
      "ton": 2471,
      "##duction": 2472,
      "prépar": 2473,
      "fle": 2474,
      "Jeu": 2475,
      "cath": 2476,
      "Fer": 2477,
      "Ant": 2478,
      "ajout": 2479,
      "##ET": 2480,
      "toi": 2481,
      "enfant": 2482,
      "destin": 2483,
      "mains": 2484,
      "syndic": 2485,
      "Mor": 2486,
      "discours": 2487,
      "sorti": 2488,
      "industrie": 2489,
      "##rir": 2490,
      "Henri": 2491,
      "##cour": 2492,
      "##ueil": 2493,
      "lett": 2494,
      "58": 2495,
      "##roite": 2496,
      "livre": 2497,
      "##usé": 2498,
      "opin": 2499,
      "annonce": 2500,
      "##oe": 2501,
      "exc": 2502,
      "garant": 2503,
      "##étés": 2504,
      "chant": 2505,
      "poste": 2506,
      "400": 2507,
      "groupe": 2508,
      "pap": 2509,
      "##onie": 2510,
      "MAR": 2511,
      "début": 2512,
      "attend": 2513,
      "##cr": 2514,
      "devait": 2515,
      "semaine": 2516,
      "relig": 2517,
      "haut": 2518,
      "commis": 2519,
      "##cel": 2520,
      "furent": 2521,
      "cependant": 2522,
      "##tesse": 2523,
      "vert": 2524,
      "gn": 2525,
      "Voici": 2526,
      "environ": 2527,
      "lequel": 2528,
      "pouvait": 2529,
      "cli": 2530,
      "certain": 2531,
      "##ision": 2532,
      "agit": 2533,
      "député": 2534,
      "gauche": 2535,
      "suivant": 2536,
      "champ": 2537,
      "affir": 2538,
      "travers": 2539,
      "##uel": 2540,
      "prend": 2541,
      "effort": 2542,
      "derniers": 2543,
      "##dé": 2544,
      "Mer": 2545,
      "fourn": 2546,
      "immédi": 2547,
      "sû": 2548,
      "##uest": 2549,
      "##ONS": 2550,
      "cad": 2551,
      "mauv": 2552,
      "##quoi": 2553,
      "##ciens": 2554,
      "fav": 2555,
      "fab": 2556,
      "acte": 2557,
      "chac": 2558,
      "Ed": 2559,
      "Georges": 2560,
      "del": 2561,
      "Son": 2562,
      "##cer": 2563,
      "satisf": 2564,
      "300": 2565,
      "gen": 2566,
      "57": 2567,
      "##imes": 2568,
      "hu": 2569,
      "##ck": 2570,
      "##lt": 2571,
      "partir": 2572,
      "défense": 2573,
      "##xte": 2574,
      "suc": 2575,
      "presse": 2576,
      "##temps": 2577,
      "Europ": 2578,
      "Deux": 2579,
      "tel": 2580,
      "Rob": 2581,
      "##raient": 2582,
      "habit": 2583,
      "train": 2584,
      "extr": 2585,
      "87": 2586,
      "##lique": 2587,
      "crois": 2588,
      "##rice": 2589,
      "bois": 2590,
      "appro": 2591,
      "pièces": 2592,
      "forme": 2593,
      "rencont": 2594,
      "##quent": 2595,
      "Pa": 2596,
      "##na": 2597,
      "Vi": 2598,
      "##quête": 2599,
      "autant": 2600,
      "##naires": 2601,
      "##50": 2602,
      "Gar": 2603,
      "journée": 2604,
      "télég": 2605,
      "rom": 2606,
      "officiers": 2607,
      "celles": 2608,
      "direction": 2609,
      "##ié": 2610,
      "discussion": 2611,
      "extra": 2612,
      "##lex": 2613,
      "##rouv": 2614,
      "59": 2615,
      "##oll": 2616,
      "serv": 2617,
      "##rou": 2618,
      "Vo": 2619,
      "souvent": 2620,
      "diri": 2621,
      "én": 2622,
      "Maur": 2623,
      "valeur": 2624,
      "##enus": 2625,
      "ital": 2626,
      "fonction": 2627,
      "atteint": 2628,
      "##issements": 2629,
      "lés": 2630,
      "81": 2631,
      "choses": 2632,
      "##ILLE": 2633,
      "décidé": 2634,
      "##ow": 2635,
      "reti": 2636,
      "Ouest": 2637,
      "tran": 2638,
      "##âteau": 2639,
      "constat": 2640,
      "##onse": 2641,
      "pourrait": 2642,
      "##itôt": 2643,
      "défin": 2644,
      "doivent": 2645,
      "##AB": 2646,
      "Union": 2647,
      "Charles": 2648,
      "prét": 2649,
      "maire": 2650,
      "cu": 2651,
      "peuple": 2652,
      "date": 2653,
      "rie": 2654,
      "##liers": 2655,
      "##eurs": 2656,
      "Journal": 2657,
      "##mont": 2658,
      "##AIN": 2659,
      "républic": 2660,
      "##oyer": 2661,
      "exist": 2662,
      "mesure": 2663,
      "protes": 2664,
      "##oque": 2665,
      "net": 2666,
      "##nelle": 2667,
      "victi": 2668,
      "longtemps": 2669,
      "eût": 2670,
      "meille": 2671,
      "Bu": 2672,
      "dispar": 2673,
      "##crit": 2674,
      "Russie": 2675,
      "lettres": 2676,
      "arrêt": 2677,
      "entra": 2678,
      "cit": 2679,
      "budget": 2680,
      "##aï": 2681,
      "##vision": 2682,
      "rôle": 2683,
      "justice": 2684,
      "Ser": 2685,
      "67": 2686,
      "comité": 2687,
      "cur": 2688,
      "malgré": 2689,
      "Autri": 2690,
      "oppos": 2691,
      "dur": 2692,
      "##oine": 2693,
      "conse": 2694,
      "Berlin": 2695,
      "##quels": 2696,
      "lundi": 2697,
      "faci": 2698,
      "##SS": 2699,
      "dél": 2700,
      "présence": 2701,
      "##omm": 2702,
      "arrêté": 2703,
      "fil": 2704,
      "bout": 2705,
      "voulu": 2706,
      "Bl": 2707,
      "avenue": 2708,
      "##nation": 2709,
      "IN": 2710,
      "rappel": 2711,
      "##ablement": 2712,
      "num": 2713,
      "fig": 2714,
      "besoin": 2715,
      "lig": 2716,
      "##este": 2717,
      "New": 2718,
      "RE": 2719,
      "##vention": 2720,
      "mob": 2721,
      "intérêts": 2722,
      "droits": 2723,
      "##sion": 2724,
      "##rant": 2725,
      "caract": 2726,
      "désir": 2727,
      "Sé": 2728,
      "##tive": 2729,
      "73": 2730,
      "mission": 2731,
      "Man": 2732,
      "vend": 2733,
      "parle": 2734,
      "considéra": 2735,
      "quelle": 2736,
      "pé": 2737,
      "administration": 2738,
      "femmes": 2739,
      "petits": 2740,
      "76": 2741,
      "gé": 2742,
      "72": 2743,
      "recher": 2744,
      "passer": 2745,
      "Comm": 2746,
      "##ifi": 2747,
      "68": 2748,
      "premiers": 2749,
      "apport": 2750,
      "Ab": 2751,
      "Cas": 2752,
      "##rest": 2753,
      "Compagnie": 2754,
      "roy": 2755,
      "accep": 2756,
      "hau": 2757,
      "neuf": 2758,
      "mise": 2759,
      "imm": 2760,
      "##can": 2761,
      "##oré": 2762,
      "##oth": 2763,
      "candi": 2764,
      "##olé": 2765,
      "dre": 2766,
      "instruction": 2767,
      "certaine": 2768,
      "auteur": 2769,
      "it": 2770,
      "cabinet": 2771,
      "admi": 2772,
      "##énat": 2773,
      "##vés": 2774,
      "temp": 2775,
      "##ute": 2776,
      "##AC": 2777,
      "capitaine": 2778,
      "66": 2779,
      "Amé": 2780,
      "comment": 2781,
      "el": 2782,
      "##ograph": 2783,
      "Ass": 2784,
      "don": 2785,
      "mouvement": 2786,
      "chiff": 2787,
      "88": 2788,
      "paris": 2789,
      "Che": 2790,
      "post": 2791,
      "##ule": 2792,
      "excelle": 2793,
      "##ae": 2794,
      "outre": 2795,
      "##alent": 2796,
      "##ession": 2797,
      "##ault": 2798,
      "tot": 2799,
      "##app": 2800,
      "Pas": 2801,
      "marchand": 2802,
      "64": 2803,
      "Europe": 2804,
      "bel": 2805,
      "effec": 2806,
      "société": 2807,
      "83": 2808,
      "71": 2809,
      "lois": 2810,
      "ris": 2811,
      "##fr": 2812,
      "##issent": 2813,
      "Her": 2814,
      "##érent": 2815,
      "Crédit": 2816,
      "Dieu": 2817,
      "André": 2818,
      "FRAN": 2819,
      "##part": 2820,
      "déclaré": 2821,
      "##ares": 2822,
      "##usion": 2823,
      "##ira": 2824,
      "Hô": 2825,
      "##xe": 2826,
      "##ano": 2827,
      "grâce": 2828,
      "##uy": 2829,
      "voie": 2830,
      "##UI": 2831,
      "##AUX": 2832,
      "Emp": 2833,
      "##vité": 2834,
      "points": 2835,
      "Sy": 2836,
      "##ju": 2837,
      "tor": 2838,
      "##iné": 2839,
      "lou": 2840,
      "renseigne": 2841,
      "Léon": 2842,
      "rapide": 2843,
      "entend": 2844,
      "danger": 2845,
      "Ver": 2846,
      "82": 2847,
      "Bret": 2848,
      "Cel": 2849,
      "certains": 2850,
      "##cut": 2851,
      "##illon": 2852,
      "##ident": 2853,
      "Non": 2854,
      "droite": 2855,
      "détail": 2856,
      "Opéra": 2857,
      "face": 2858,
      "##ip": 2859,
      "péri": 2860,
      "entière": 2861,
      "Martin": 2862,
      "Ja": 2863,
      "libre": 2864,
      "crédit": 2865,
      "simple": 2866,
      "Ger": 2867,
      "quin": 2868,
      "dég": 2869,
      "change": 2870,
      "milieu": 2871,
      "Espagne": 2872,
      "croy": 2873,
      "UN": 2874,
      "##rim": 2875,
      "##uti": 2876,
      "jeudi": 2877,
      "avou": 2878,
      "élé": 2879,
      "dent": 2880,
      "##cha": 2881,
      "saur": 2882,
      "to": 2883,
      "programme": 2884,
      "vieux": 2885,
      "actes": 2886,
      "national": 2887,
      "moyens": 2888,
      "78": 2889,
      "finan": 2890,
      "##édie": 2891,
      "185": 2892,
      "77": 2893,
      "##ock": 2894,
      "##indre": 2895,
      "poursui": 2896,
      "regard": 2897,
      "##assade": 2898,
      "hôtel": 2899,
      "sorte": 2900,
      "nouveaux": 2901,
      "frapp": 2902,
      "arrivé": 2903,
      "Li": 2904,
      "##ca": 2905,
      "maître": 2906,
      "##atif": 2907,
      "■■": 2908,
      "histoire": 2909,
      "bruit": 2910,
      "##orable": 2911,
      "trouvé": 2912,
      "marine": 2913,
      "lieut": 2914,
      "sout": 2915,
      "bu": 2916,
      "##IC": 2917,
      "93": 2918,
      "précéd": 2919,
      "dè": 2920,
      "Italie": 2921,
      "bour": 2922,
      "##âti": 2923,
      "commissaire": 2924,
      "##bes": 2925,
      "##ouse": 2926,
      "##car": 2927,
      "Mé": 2928,
      "ae": 2929,
      "coups": 2930,
      "candid": 2931,
      "Sch": 2932,
      "paraît": 2933,
      "officie": 2934,
      "troisième": 2935,
      "éner": 2936,
      "Ag": 2937,
      "##iez": 2938,
      "autom": 2939,
      "##ige": 2940,
      "##ection": 2941,
      "provin": 2942,
      "##oise": 2943,
      "organis": 2944,
      "ll": 2945,
      "malheure": 2946,
      "plais": 2947,
      "symp": 2948,
      "##rées": 2949,
      "resp": 2950,
      "afin": 2951,
      "Rome": 2952,
      "passe": 2953,
      "cess": 2954,
      "##ulture": 2955,
      "voi": 2956,
      "kilos": 2957,
      "##éch": 2958,
      "franco": 2959,
      "bénéfi": 2960,
      "##lant": 2961,
      "##acle": 2962,
      "##iner": 2963,
      "##VE": 2964,
      "prê": 2965,
      "telle": 2966,
      "##ini": 2967,
      "idée": 2968,
      "##ars": 2969,
      "catholi": 2970,
      "##ols": 2971,
      "venir": 2972,
      "traité": 2973,
      "kilom": 2974,
      "chap": 2975,
      "signal": 2976,
      "##ousse": 2977,
      "tribunal": 2978,
      "poi": 2979,
      "améric": 2980,
      "##atoire": 2981,
      "Conc": 2982,
      "##ément": 2983,
      "##dis": 2984,
      "dos": 2985,
      "Bal": 2986,
      "pen": 2987,
      "desc": 2988,
      "##att": 2989,
      "##ume": 2990,
      "vill": 2991,
      "mardi": 2992,
      "##ames": 2993,
      "##issant": 2994,
      "##rons": 2995,
      "alli": 2996,
      "Notre": 2997,
      "militaires": 2998,
      "ensemble": 2999,
      "##fc": 3000,
      "69": 3001,
      "répar": 3002,
      "auront": 3003,
      "arrivée": 3004,
      "professe": 3005,
      "simp": 3006,
      "fe": 3007,
      "Bi": 3008,
      "frais": 3009,
      "pont": 3010,
      "##fé": 3011,
      "##omme": 3012,
      "##chet": 3013,
      "rac": 3014,
      "meu": 3015,
      "Quel": 3016,
      "lang": 3017,
      "##elopp": 3018,
      "individ": 3019,
      "##ichel": 3020,
      "soirée": 3021,
      "##ub": 3022,
      "ments": 3023,
      "##émie": 3024,
      "##cin": 3025,
      "##ènes": 3026,
      "##urer": 3027,
      "Comme": 3028,
      "chem": 3029,
      "##rt": 3030,
      "commandant": 3031,
      "##léans": 3032,
      "##onné": 3033,
      "négoci": 3034,
      "étrangères": 3035,
      "##duc": 3036,
      "##chant": 3037,
      "opinion": 3038,
      "Jus": 3039,
      "##TS": 3040,
      "##credi": 3041,
      "Mo": 3042,
      "Quand": 3043,
      "pied": 3044,
      "contraire": 3045,
      "appren": 3046,
      "hi": 3047,
      "##andis": 3048,
      "##asses": 3049,
      "##aude": 3050,
      "trent": 3051,
      "rest": 3052,
      "noir": 3053,
      "Cap": 3054,
      "exécu": 3055,
      "parler": 3056,
      "vari": 3057,
      "partis": 3058,
      "vain": 3059,
      "Can": 3060,
      "Petit": 3061,
      "##rient": 3062,
      "foule": 3063,
      "##crire": 3064,
      "éclat": 3065,
      "soldats": 3066,
      "Vers": 3067,
      "lorsque": 3068,
      "nécessaire": 3069,
      "sen": 3070,
      "tenu": 3071,
      "##éder": 3072,
      "opéra": 3073,
      "née": 3074,
      "duc": 3075,
      "cheval": 3076,
      "plan": 3077,
      "repro": 3078,
      "##entes": 3079,
      "##olog": 3080,
      "sembl": 3081,
      "74": 3082,
      "Bo": 3083,
      "faveur": 3084,
      "aband": 3085,
      "large": 3086,
      "Pré": 3087,
      "##éraux": 3088,
      "aper": 3089,
      "Puis": 3090,
      "tin": 3091,
      "Bon": 3092,
      "ge": 3093,
      "ES": 3094,
      "Quant": 3095,
      "bons": 3096,
      "manifest": 3097,
      "cru": 3098,
      "rais": 3099,
      "orig": 3100,
      "esti": 3101,
      "engage": 3102,
      "##off": 3103,
      "évé": 3104,
      "##con": 3105,
      "circul": 3106,
      "habitu": 3107,
      "Nouv": 3108,
      "demander": 3109,
      "Unis": 3110,
      "##ereur": 3111,
      "Orléans": 3112,
      "colonel": 3113,
      "connaître": 3114,
      "600": 3115,
      "diffic": 3116,
      "amour": 3117,
      "##ongr": 3118,
      "école": 3119,
      "##IV": 3120,
      "questions": 3121,
      "##fort": 3122,
      "##anne": 3123,
      "ign": 3124,
      "faites": 3125,
      "demandé": 3126,
      "##gée": 3127,
      "chacun": 3128,
      "##lièrement": 3129,
      "01": 3130,
      "Bourse": 3131,
      "##arde": 3132,
      "Val": 3133,
      "ft": 3134,
      "vice": 3135,
      "Fl": 3136,
      "##IG": 3137,
      "99": 3138,
      "deuxième": 3139,
      "exemple": 3140,
      "gal": 3141,
      "modi": 3142,
      "##tié": 3143,
      "##elon": 3144,
      "150": 3145,
      "Dou": 3146,
      "illus": 3147,
      "mesures": 3148,
      "Hier": 3149,
      "faisait": 3150,
      "teur": 3151,
      "réd": 3152,
      "prison": 3153,
      "concert": 3154,
      "radic": 3155,
      "Gaz": 3156,
      "enquête": 3157,
      "##ientôt": 3158,
      "log": 3159,
      "Borde": 3160,
      "86": 3161,
      "confiance": 3162,
      "250": 3163,
      "##ott": 3164,
      "quant": 3165,
      "Sar": 3166,
      "ministres": 3167,
      "Tour": 3168,
      "accompagn": 3169,
      "syst": 3170,
      "continu": 3171,
      "épre": 3172,
      "##ak": 3173,
      "##nce": 3174,
      "92": 3175,
      "SO": 3176,
      "##rages": 3177,
      "ger": 3178,
      "##oration": 3179,
      "auss": 3180,
      "église": 3181,
      "##utes": 3182,
      "96": 3183,
      "cote": 3184,
      "89": 3185,
      "services": 3186,
      "soient": 3187,
      "Den": 3188,
      "##ège": 3189,
      "notaire": 3190,
      "end": 3191,
      "indé": 3192,
      "Enfin": 3193,
      "##rav": 3194,
      "##prise": 3195,
      "84": 3196,
      "majorité": 3197,
      "##gés": 3198,
      "musique": 3199,
      "tenir": 3200,
      "##QU": 3201,
      "pourra": 3202,
      "véritable": 3203,
      "voiture": 3204,
      "navi": 3205,
      "vé": 3206,
      "fall": 3207,
      "##aitement": 3208,
      "fera": 3209,
      "arrond": 3210,
      "actuellement": 3211,
      "croire": 3212,
      "##mettre": 3213,
      "département": 3214,
      "##rid": 3215,
      "Franç": 3216,
      "hum": 3217,
      "##lent": 3218,
      "##ainte": 3219,
      "réclam": 3220,
      "Pont": 3221,
      "Ri": 3222,
      "##eries": 3223,
      "##ork": 3224,
      "oubli": 3225,
      "91": 3226,
      "refus": 3227,
      "associ": 3228,
      "##oo": 3229,
      "Roy": 3230,
      "##atement": 3231,
      "intérieur": 3232,
      "##quelles": 3233,
      "âge": 3234,
      "##qués": 3235,
      "bras": 3236,
      "repren": 3237,
      "Victor": 3238,
      "Havre": 3239,
      "circonst": 3240,
      "fête": 3241,
      "OU": 3242,
      "##apon": 3243,
      "institu": 3244,
      "fonds": 3245,
      "##èse": 3246,
      "jur": 3247,
      "ali": 3248,
      "ambassade": 3249,
      "##cur": 3250,
      "##ly": 3251,
      "chargé": 3252,
      "##rale": 3253,
      "spécial": 3254,
      "sin": 3255,
      "Bordeaux": 3256,
      "députés": 3257,
      "##abilité": 3258,
      "cot": 3259,
      "lutte": 3260,
      "Sénat": 3261,
      "aussitôt": 3262,
      "##FF": 3263,
      "##ray": 3264,
      "os": 3265,
      "grat": 3266,
      "Jou": 3267,
      "diverses": 3268,
      "##ulté": 3269,
      "800": 3270,
      "prochaine": 3271,
      "##ça": 3272,
      "avance": 3273,
      "vont": 3274,
      "##rand": 3275,
      "Blan": 3276,
      "##cience": 3277,
      "cuis": 3278,
      "##nis": 3279,
      "agré": 3280,
      "distin": 3281,
      "amen": 3282,
      "AR": 3283,
      "entendu": 3284,
      "delà": 3285,
      "rester": 3286,
      "parole": 3287,
      "différent": 3288,
      "97": 3289,
      "assemblée": 3290,
      "étranger": 3291,
      "##gie": 3292,
      "cui": 3293,
      "actions": 3294,
      "nav": 3295,
      "déclare": 3296,
      "##ote": 3297,
      "résultats": 3298,
      "personn": 3299,
      "fant": 3300,
      "##olie": 3301,
      "##AP": 3302,
      "campagne": 3303,
      "##pital": 3304,
      "##INE": 3305,
      "##ués": 3306,
      "##ERS": 3307,
      "tar": 3308,
      "agents": 3309,
      "##runt": 3310,
      "répé": 3311,
      "sav": 3312,
      "conser": 3313,
      "Imp": 3314,
      "##ides": 3315,
      "##ît": 3316,
      "matinée": 3317,
      "passage": 3318,
      "camar": 3319,
      "Ent": 3320,
      "Plus": 3321,
      "##ÉS": 3322,
      "CON": 3323,
      "94": 3324,
      "##naire": 3325,
      "arb": 3326,
      "AL": 3327,
      "##dent": 3328,
      "Cal": 3329,
      "appare": 3330,
      "résultat": 3331,
      "centre": 3332,
      "manière": 3333,
      "définiti": 3334,
      "rét": 3335,
      "##tiers": 3336,
      "##issait": 3337,
      "calme": 3338,
      "cinqu": 3339,
      "administra": 3340,
      "Gal": 3341,
      "##aume": 3342,
      "prise": 3343,
      "##ven": 3344,
      "uns": 3345,
      "lieutenant": 3346,
      "chemins": 3347,
      "Depuis": 3348,
      "lorsqu": 3349,
      "ache": 3350,
      "ennemi": 3351,
      "red": 3352,
      "lè": 3353,
      "Aujourd": 3354,
      "tt": 3355,
      "Palais": 3356,
      "coll": 3357,
      "vin": 3358,
      "PRI": 3359,
      "peint": 3360,
      "auprès": 3361,
      "époque": 3362,
      "98": 3363,
      "tient": 3364,
      "liste": 3365,
      "propriét": 3366,
      "lour": 3367,
      "##chi": 3368,
      "##olon": 3369,
      "scène": 3370,
      "empê": 3371,
      "##endra": 3372,
      "entrée": 3373,
      "Alg": 3374,
      "entendre": 3375,
      "ro": 3376,
      "pouss": 3377,
      "##assé": 3378,
      "voici": 3379,
      "recom": 3380,
      "Rh": 3381,
      "visite": 3382,
      "Hôtel": 3383,
      "accus": 3384,
      "étudi": 3385,
      "##rais": 3386,
      "##igue": 3387,
      "##vez": 3388,
      "proposition": 3389,
      "foi": 3390,
      "Toul": 3391,
      "choix": 3392,
      "adresse": 3393,
      "##gén": 3394,
      "comtesse": 3395,
      "##toire": 3396,
      "laisser": 3397,
      "##onte": 3398,
      "vou": 3399,
      "79": 3400,
      "##abl": 3401,
      "##née": 3402,
      "##net": 3403,
      "##oncer": 3404,
      "##ocra": 3405,
      "##af": 3406,
      "spect": 3407,
      "kilo": 3408,
      "##mann": 3409,
      "fré": 3410,
      "##tifs": 3411,
      "terrain": 3412,
      "##ulg": 3413,
      "##nd": 3414,
      "magn": 3415,
      "fou": 3416,
      "venait": 3417,
      "##ible": 3418,
      "mén": 3419,
      "renseignements": 3420,
      "##quée": 3421,
      "Lor": 3422,
      "ly": 3423,
      "venu": 3424,
      "##ètre": 3425,
      "##ône": 3426,
      "York": 3427,
      "##URS": 3428,
      "vendredi": 3429,
      "Jules": 3430,
      "mou": 3431,
      "arriver": 3432,
      "##ruction": 3433,
      "chefs": 3434,
      "tourn": 3435,
      "appl": 3436,
      "vérité": 3437,
      "Qui": 3438,
      "Ecole": 3439,
      "Rennes": 3440,
      "forces": 3441,
      "anim": 3442,
      "heureux": 3443,
      "##onner": 3444,
      "##cie": 3445,
      "dan": 3446,
      "baron": 3447,
      "appré": 3448,
      "bientôt": 3449,
      "porter": 3450,
      "explo": 3451,
      "grave": 3452,
      "soup": 3453,
      "dant": 3454,
      "##més": 3455,
      "mots": 3456,
      "note": 3457,
      "russe": 3458,
      "Fin": 3459,
      "stat": 3460,
      "##tir": 3461,
      "##elli": 3462,
      "fus": 3463,
      "notamment": 3464,
      "Grande": 3465,
      "internation": 3466,
      "avenir": 3467,
      "fau": 3468,
      "lait": 3469,
      "présente": 3470,
      "##çons": 3471,
      "municipal": 3472,
      "brill": 3473,
      "##ias": 3474,
      "conférence": 3475,
      "mande": 3476,
      "marche": 3477,
      "##je": 3478,
      "vote": 3479,
      "étrangers": 3480,
      "##ication": 3481,
      "##duis": 3482,
      "Gen": 3483,
      "##vet": 3484,
      "nombreuses": 3485,
      "##cription": 3486,
      "Monsieur": 3487,
      "Lo": 3488,
      "##blie": 3489,
      "Hu": 3490,
      "tandis": 3491,
      "##cesse": 3492,
      "##ument": 3493,
      "collè": 3494,
      "af": 3495,
      "siège": 3496,
      "101": 3497,
      "##assin": 3498,
      "dén": 3499,
      "valeurs": 3500,
      "lin": 3501,
      "##llerie": 3502,
      "##ust": 3503,
      "géné": 3504,
      "fût": 3505,
      "anciens": 3506,
      "##illets": 3507,
      "Sud": 3508,
      "Fé": 3509,
      "##pes": 3510,
      "Autriche": 3511,
      "charge": 3512,
      "ora": 3513,
      "conséqu": 3514,
      "Cent": 3515,
      "Cet": 3516,
      "seconde": 3517,
      "vas": 3518,
      "Maurice": 3519,
      "##EM": 3520,
      "remb": 3521,
      "trente": 3522,
      "##lication": 3523,
      "soli": 3524,
      "Aux": 3525,
      "respons": 3526,
      "rele": 3527,
      "Const": 3528,
      "##ha": 3529,
      "102": 3530,
      "##érés": 3531,
      "officier": 3532,
      "agric": 3533,
      "rê": 3534,
      "##TES": 3535,
      "ouver": 3536,
      "autour": 3537,
      "propre": 3538,
      "course": 3539,
      "Nor": 3540,
      "Bretagne": 3541,
      "##veill": 3542,
      "ave": 3543,
      "entraî": 3544,
      "résist": 3545,
      "ler": 3546,
      "Bri": 3547,
      "##aign": 3548,
      "pourquoi": 3549,
      "quartier": 3550,
      "amende": 3551,
      "décret": 3552,
      "voud": 3553,
      "présidence": 3554,
      "expri": 3555,
      "réponse": 3556,
      "chois": 3557,
      "titres": 3558,
      "rait": 3559,
      "régime": 3560,
      "Fr": 3561,
      "##OO": 3562,
      "##agé": 3563,
      "##reur": 3564,
      "pauvre": 3565,
      "##âche": 3566,
      "veille": 3567,
      "mém": 3568,
      "indis": 3569,
      "kilomètres": 3570,
      "santé": 3571,
      "faisant": 3572,
      "coule": 3573,
      "Bern": 3574,
      "gré": 3575,
      "haute": 3576,
      "vant": 3577,
      "avoc": 3578,
      "absolu": 3579,
      "##rence": 3580,
      "Prés": 3581,
      "fêtes": 3582,
      "##yn": 3583,
      "##uc": 3584,
      "##adémie": 3585,
      "##ina": 3586,
      "chau": 3587,
      "seraient": 3588,
      "VEN": 3589,
      "##lément": 3590,
      "mauvais": 3591,
      "mercredi": 3592,
      "##çant": 3593,
      "dipl": 3594,
      "Trois": 3595,
      "##éros": 3596,
      "##OIS": 3597,
      "Albert": 3598,
      "##for": 3599,
      "caractère": 3600,
      "##léb": 3601,
      "##aa": 3602,
      "dépens": 3603,
      "##MAN": 3604,
      "château": 3605,
      "##titut": 3606,
      "unique": 3607,
      "##œurs": 3608,
      "Vienne": 3609,
      "capital": 3610,
      "##vue": 3611,
      "instant": 3612,
      "grève": 3613,
      "bo": 3614,
      "hos": 3615,
      "##bi": 3616,
      "Eg": 3617,
      "Boul": 3618,
      "Champ": 3619,
      "particulier": 3620,
      "ner": 3621,
      "cant": 3622,
      "exerci": 3623,
      "bro": 3624,
      "##ultés": 3625,
      "maîtres": 3626,
      "Maison": 3627,
      "demie": 3628,
      "##mières": 3629,
      "finances": 3630,
      "Ainsi": 3631,
      "##rec": 3632,
      "nord": 3633,
      "gend": 3634,
      "2°": 3635,
      "souvenir": 3636,
      "Dép": 3637,
      "suivante": 3638,
      "Jacques": 3639,
      "François": 3640,
      "##ignement": 3641,
      "exac": 3642,
      "mit": 3643,
      "Bas": 3644,
      "##arch": 3645,
      "Midi": 3646,
      "monsieur": 3647,
      "armes": 3648,
      "enc": 3649,
      "##bon": 3650,
      "ram": 3651,
      "délic": 3652,
      "103": 3653,
      "##cture": 3654,
      "êtes": 3655,
      "tres": 3656,
      "commune": 3657,
      "partout": 3658,
      "viennent": 3659,
      "matérie": 3660,
      "##ays": 3661,
      "##aug": 3662,
      "révolution": 3663,
      "##line": 3664,
      "##ALE": 3665,
      "##échal": 3666,
      "##osse": 3667,
      "##rance": 3668,
      "personnel": 3669,
      "domicile": 3670,
      "chasse": 3671,
      "professeur": 3672,
      "articles": 3673,
      "membre": 3674,
      "##nn": 3675,
      "plein": 3676,
      "obtenir": 3677,
      "secours": 3678,
      "four": 3679,
      "##édération": 3680,
      "##isl": 3681,
      "citoy": 3682,
      "disait": 3683,
      "Alex": 3684,
      "aide": 3685,
      "184": 3686,
      "bâti": 3687,
      "##old": 3688,
      "territ": 3689,
      "Af": 3690,
      "##UL": 3691,
      "##yr": 3692,
      "parc": 3693,
      "exécut": 3694,
      "Cont": 3695,
      "##ji": 3696,
      "##per": 3697,
      "Roi": 3698,
      "envoyé": 3699,
      "espagn": 3700,
      "court": 3701,
      "##ennes": 3702,
      "Is": 3703,
      "permett": 3704,
      "colle": 3705,
      "correspondant": 3706,
      "fid": 3707,
      "plut": 3708,
      "Sans": 3709,
      "gui": 3710,
      "Lég": 3711,
      "##ION": 3712,
      "Bert": 3713,
      "triomp": 3714,
      "assurer": 3715,
      "Cher": 3716,
      "Ins": 3717,
      "opé": 3718,
      "procès": 3719,
      "##her": 3720,
      "##mm": 3721,
      "taire": 3722,
      "tur": 3723,
      "développ": 3724,
      "système": 3725,
      "##iral": 3726,
      "##ani": 3727,
      "Mgr": 3728,
      "position": 3729,
      "provo": 3730,
      "âgé": 3731,
      "beaux": 3732,
      "chevaux": 3733,
      "compar": 3734,
      "Po": 3735,
      "##mine": 3736,
      "mu": 3737,
      "télégraph": 3738,
      "##ates": 3739,
      "nes": 3740,
      "décision": 3741,
      "travaill": 3742,
      "froi": 3743,
      "connaiss": 3744,
      "méd": 3745,
      "##to": 3746,
      "dépl": 3747,
      "pensée": 3748,
      "civil": 3749,
      "politiques": 3750,
      "SE": 3751,
      "usage": 3752,
      "meur": 3753,
      "brit": 3754,
      "compris": 3755,
      "volu": 3756,
      "siècle": 3757,
      "##nés": 3758,
      "##nements": 3759,
      "avais": 3760,
      "épr": 3761,
      "Neu": 3762,
      "travaille": 3763,
      "111": 3764,
      "##uste": 3765,
      "##isée": 3766,
      "univers": 3767,
      "accident": 3768,
      "##ifique": 3769,
      "##OB": 3770,
      "##atives": 3771,
      "##ita": 3772,
      "adj": 3773,
      "môme": 3774,
      "appli": 3775,
      "##rez": 3776,
      "autorité": 3777,
      "lignes": 3778,
      "Ha": 3779,
      "##érité": 3780,
      "influ": 3781,
      "essay": 3782,
      "croit": 3783,
      "emploi": 3784,
      "sén": 3785,
      "##rine": 3786,
      "prit": 3787,
      "rang": 3788,
      "fon": 3789,
      "PRIX": 3790,
      "Jose": 3791,
      "##ôts": 3792,
      "expéri": 3793,
      "compagnie": 3794,
      "lende": 3795,
      "faute": 3796,
      "05": 3797,
      "quai": 3798,
      "mine": 3799,
      "contra": 3800,
      "Mess": 3801,
      "##érat": 3802,
      "certaines": 3803,
      "DÉ": 3804,
      "##TEL": 3805,
      "##deur": 3806,
      "##ieuses": 3807,
      "audi": 3808,
      "Pi": 3809,
      "Peu": 3810,
      "Robert": 3811,
      "##acement": 3812,
      "teurs": 3813,
      "ture": 3814,
      "auraient": 3815,
      "numéro": 3816,
      "For": 3817,
      "paroles": 3818,
      "##CES": 3819,
      "##do": 3820,
      "##andre": 3821,
      "Mag": 3822,
      "##tés": 3823,
      "expli": 3824,
      "Aug": 3825,
      "termes": 3826,
      "chance": 3827,
      "céléb": 3828,
      "allait": 3829,
      "Er": 3830,
      "allemande": 3831,
      "##êque": 3832,
      "importance": 3833,
      "##veille": 3834,
      "Ra": 3835,
      "ingén": 3836,
      "facile": 3837,
      "terme": 3838,
      "pleine": 3839,
      "##riot": 3840,
      "édi": 3841,
      "Michel": 3842,
      "bra": 3843,
      "efforts": 3844,
      "organisation": 3845,
      "pense": 3846,
      "sud": 3847,
      "##OUS": 3848,
      "recevoir": 3849,
      "183": 3850,
      "texte": 3851,
      "##pend": 3852,
      "hausse": 3853,
      "remarqu": 3854,
      "SI": 3855,
      "dernières": 3856,
      "Pol": 3857,
      "connu": 3858,
      "observ": 3859,
      "##èce": 3860,
      "Lau": 3861,
      "égard": 3862,
      "##gues": 3863,
      "permis": 3864,
      "prod": 3865,
      "##hors": 3866,
      "suivi": 3867,
      "volonté": 3868,
      "##der": 3869,
      "publics": 3870,
      "dimin": 3871,
      "porté": 3872,
      "##CHE": 3873,
      "##enait": 3874,
      "Loire": 3875,
      "Ter": 3876,
      "légère": 3877,
      "automob": 3878,
      "commence": 3879,
      "Joseph": 3880,
      "socialiste": 3881,
      "lot": 3882,
      "Académie": 3883,
      "cents": 3884,
      "##arr": 3885,
      "plutôt": 3886,
      "produits": 3887,
      "##GE": 3888,
      "interpr": 3889,
      "livres": 3890,
      "puisse": 3891,
      "lim": 3892,
      "##oph": 3893,
      "##ertes": 3894,
      "SU": 3895,
      "sépar": 3896,
      "hyp": 3897,
      "##isc": 3898,
      "pes": 3899,
      "##ILL": 3900,
      "réserve": 3901,
      "bureaux": 3902,
      "rob": 3903,
      "##ilier": 3904,
      "##aval": 3905,
      "plaisir": 3906,
      "mach": 3907,
      "gou": 3908,
      "ges": 3909,
      "PRO": 3910,
      "consul": 3911,
      "##tient": 3912,
      "##chés": 3913,
      "jardin": 3914,
      "##isés": 3915,
      "n°": 3916,
      "forte": 3917,
      "##leur": 3918,
      "Jeanne": 3919,
      "Mai": 3920,
      "quo": 3921,
      "hôpital": 3922,
      "inspec": 3923,
      "##ino": 3924,
      "##ANS": 3925,
      "##érant": 3926,
      "##uits": 3927,
      "Fau": 3928,
      "améli": 3929,
      "Théâtre": 3930,
      "laisse": 3931,
      "Nap": 3932,
      "##fer": 3933,
      "exig": 3934,
      "disposition": 3935,
      "##ga": 3936,
      "immédiatement": 3937,
      "120": 3938,
      "pur": 3939,
      "nant": 3940,
      "blanc": 3941,
      "selon": 3942,
      "conseiller": 3943,
      "crime": 3944,
      "put": 3945,
      "##anterie": 3946,
      "frère": 3947,
      "##ki": 3948,
      "##ho": 3949,
      "##ms": 3950,
      "minutes": 3951,
      "##met": 3952,
      "spectacle": 3953,
      "ot": 3954,
      "empereur": 3955,
      "portant": 3956,
      "Aussi": 3957,
      "##tienne": 3958,
      "Mil": 3959,
      "##avant": 3960,
      "favor": 3961,
      "enle": 3962,
      "bonnes": 3963,
      "preuve": 3964,
      "perd": 3965,
      "communi": 3966,
      "##cine": 3967,
      "sympath": 3968,
      "population": 3969,
      "##tait": 3970,
      "##udes": 3971,
      "Belgique": 3972,
      "blessé": 3973,
      "consac": 3974,
      "AV": 3975,
      "maisons": 3976,
      "##cière": 3977,
      "revue": 3978,
      "suffis": 3979,
      "##ries": 3980,
      "voilà": 3981,
      "##meu": 3982,
      "Rue": 3983,
      "Sim": 3984,
      "pla": 3985,
      "plupart": 3986,
      "repos": 3987,
      "##NES": 3988,
      "section": 3989,
      "hors": 3990,
      "##èr": 3991,
      "hy": 3992,
      "avions": 3993,
      "##ets": 3994,
      "##ton": 3995,
      "##ase": 3996,
      "Allemand": 3997,
      "##ambres": 3998,
      "actuelle": 3999,
      "##lande": 4000,
      "##cessi": 4001,
      "lement": 4002,
      "##xim": 4003,
      "pav": 4004,
      "press": 4005,
      "ordinaire": 4006,
      "caus": 4007,
      "retrouv": 4008,
      "Nantes": 4009,
      "##èques": 4010,
      "auquel": 4011,
      "##INS": 4012,
      "Méd": 4013,
      "rouge": 4014,
      "##tine": 4015,
      "dehors": 4016,
      "mécan": 4017,
      "##cy": 4018,
      "couv": 4019,
      "abbé": 4020,
      "excl": 4021,
      "blessés": 4022,
      "ajoute": 4023,
      "##rich": 4024,
      "double": 4025,
      "renv": 4026,
      "nette": 4027,
      "emprunt": 4028,
      "hor": 4029,
      "##jou": 4030,
      "province": 4031,
      "ouverte": 4032,
      "##issance": 4033,
      "reprise": 4034,
      "##raite": 4035,
      "juste": 4036,
      "Jour": 4037,
      "faud": 4038,
      "genre": 4039,
      "étude": 4040,
      "super": 4041,
      "##OND": 4042,
      "veuve": 4043,
      "perdu": 4044,
      "##atiques": 4045,
      "##CT": 4046,
      "##oa": 4047,
      "exception": 4048,
      "Sainte": 4049,
      "difficile": 4050,
      "mur": 4051,
      "##ERIE": 4052,
      "##mile": 4053,
      "Cam": 4054,
      "Comité": 4055,
      "Ecrire": 4056,
      "lendemain": 4057,
      "couvert": 4058,
      "Mét": 4059,
      "##MP": 4060,
      "##asser": 4061,
      "profit": 4062,
      "prises": 4063,
      "victoire": 4064,
      "concur": 4065,
      "mess": 4066,
      "considérable": 4067,
      "célè": 4068,
      "attention": 4069,
      "pourtant": 4070,
      "servir": 4071,
      "conduit": 4072,
      "##ARD": 4073,
      "##mond": 4074,
      "appart": 4075,
      "acqu": 4076,
      "##rable": 4077,
      "##rement": 4078,
      "représentation": 4079,
      "cér": 4080,
      "commande": 4081,
      "arrondissement": 4082,
      "ei": 4083,
      "##tip": 4084,
      "principe": 4085,
      "##son": 4086,
      "quinze": 4087,
      "artillerie": 4088,
      "billets": 4089,
      "baisse": 4090,
      "##érences": 4091,
      "trouvait": 4092,
      "Dan": 4093,
      "crise": 4094,
      "##unis": 4095,
      "cy": 4096,
      "##sement": 4097,
      "HO": 4098,
      "##léph": 4099,
      "clôt": 4100,
      "##tition": 4101,
      "Rom": 4102,
      "suivre": 4103,
      "##pin": 4104,
      "progrès": 4105,
      "rai": 4106,
      "##uxe": 4107,
      "aperç": 4108,
      "généraux": 4109,
      "extrême": 4110,
      "##AV": 4111,
      "Angl": 4112,
      "Str": 4113,
      "Us": 4114,
      "veux": 4115,
      "attitude": 4116,
      "aim": 4117,
      "##rop": 4118,
      "##no": 4119,
      "mour": 4120,
      "conserv": 4121,
      "##illé": 4122,
      "concerne": 4123,
      "##til": 4124,
      "souver": 4125,
      "Alors": 4126,
      "présenter": 4127,
      "##zaine": 4128,
      "Expos": 4129,
      "##tements": 4130,
      "arm": 4131,
      "resta": 4132,
      "##érée": 4133,
      "impossible": 4134,
      "Off": 4135,
      "ouvrier": 4136,
      "lis": 4137,
      "auto": 4138,
      "pure": 4139,
      "obtenu": 4140,
      "##ination": 4141,
      "##cée": 4142,
      "détr": 4143,
      "britann": 4144,
      "##25": 4145,
      "Chine": 4146,
      "derrière": 4147,
      "établi": 4148,
      "idées": 4149,
      "Pendant": 4150,
      "initi": 4151,
      "continue": 4152,
      "congrès": 4153,
      "##ider": 4154,
      "Toute": 4155,
      "##illy": 4156,
      "##aro": 4157,
      "vite": 4158,
      "commerci": 4159,
      "##lit": 4160,
      "activité": 4161,
      "Oui": 4162,
      "manœu": 4163,
      "soins": 4164,
      "effectu": 4165,
      "##UN": 4166,
      "##pens": 4167,
      "déter": 4168,
      "exécution": 4169,
      "nt": 4170,
      "##rog": 4171,
      "thé": 4172,
      "110": 4173,
      "donnée": 4174,
      "##uves": 4175,
      "##ey": 4176,
      "conduite": 4177,
      "lesquels": 4178,
      "##mage": 4179,
      "rav": 4180,
      "Pal": 4181,
      "patron": 4182,
      "bate": 4183,
      "complète": 4184,
      "mandat": 4185,
      "inform": 4186,
      "puisque": 4187,
      "Montmar": 4188,
      "Tu": 4189,
      "élections": 4190,
      "Eglise": 4191,
      "##cteur": 4192,
      "achet": 4193,
      "nour": 4194,
      "scru": 4195,
      "##itime": 4196,
      "franc": 4197,
      "délégués": 4198,
      "Ang": 4199,
      "eh": 4200,
      "viv": 4201,
      "##chestre": 4202,
      "##gence": 4203,
      "##UX": 4204,
      "cérém": 4205,
      "##uelle": 4206,
      "marquis": 4207,
      "prétend": 4208,
      "annon": 4209,
      "##ONT": 4210,
      "dame": 4211,
      "##ureur": 4212,
      "Versailles": 4213,
      "mariage": 4214,
      "##pir": 4215,
      "Ir": 4216,
      "collab": 4217,
      "##orer": 4218,
      "Cours": 4219,
      "Emile": 4220,
      "complètement": 4221,
      "gri": 4222,
      "places": 4223,
      "silen": 4224,
      "advers": 4225,
      "##IEN": 4226,
      "##aye": 4227,
      "Em": 4228,
      "saison": 4229,
      "##ël": 4230,
      "##onnement": 4231,
      "déclaration": 4232,
      "ue": 4233,
      "adopté": 4234,
      "centimes": 4235,
      "tenue": 4236,
      "Peti": 4237,
      "Gir": 4238,
      "maréchal": 4239,
      "amiral": 4240,
      "hés": 4241,
      "brig": 4242,
      "##oirs": 4243,
      "remer": 4244,
      "noms": 4245,
      "##orité": 4246,
      "Min": 4247,
      "dévou": 4248,
      "problè": 4249,
      "##onnier": 4250,
      "diplom": 4251,
      "condamné": 4252,
      "atti": 4253,
      "Pat": 4254,
      "gaz": 4255,
      "Asse": 4256,
      "##usses": 4257,
      "artistes": 4258,
      "Nos": 4259,
      "Ben": 4260,
      "étend": 4261,
      "déta": 4262,
      "Ste": 4263,
      "Voilà": 4264,
      "##otion": 4265,
      "senti": 4266,
      "##UB": 4267,
      "##inaires": 4268,
      "##ompte": 4269,
      "##cule": 4270,
      "##nier": 4271,
      "Gui": 4272,
      "demeurant": 4273,
      "dirige": 4274,
      "prouv": 4275,
      "mul": 4276,
      "##ura": 4277,
      "élèves": 4278,
      "##vées": 4279,
      "Clu": 4280,
      "imag": 4281,
      "##tl": 4282,
      "##gi": 4283,
      "venant": 4284,
      "PE": 4285,
      "profession": 4286,
      "paraiss": 4287,
      "œuvres": 4288,
      "##hi": 4289,
      "Dem": 4290,
      "##rible": 4291,
      "heu": 4292,
      "ty": 4293,
      "toile": 4294,
      "##sine": 4295,
      "circonstances": 4296,
      "##demment": 4297,
      "pal": 4298,
      "opérations": 4299,
      "##za": 4300,
      "oui": 4301,
      "employés": 4302,
      "goût": 4303,
      "avocat": 4304,
      "lès": 4305,
      "sacri": 4306,
      "dî": 4307,
      "##ka": 4308,
      "détails": 4309,
      "Concert": 4310,
      "publie": 4311,
      "chiffre": 4312,
      "Mac": 4313,
      "Bien": 4314,
      "PL": 4315,
      "lon": 4316,
      "marqu": 4317,
      "compagn": 4318,
      "ça": 4319,
      "provis": 4320,
      "élég": 4321,
      "##da": 4322,
      "##pre": 4323,
      "Cependant": 4324,
      "guère": 4325,
      "##land": 4326,
      "ciel": 4327,
      "âme": 4328,
      "##ciers": 4329,
      "soin": 4330,
      "Cli": 4331,
      "vive": 4332,
      "montre": 4333,
      "Montmartre": 4334,
      "ray": 4335,
      "##urg": 4336,
      "profond": 4337,
      "##iii": 4338,
      "poids": 4339,
      "parlement": 4340,
      "Ec": 4341,
      "##br": 4342,
      "ouverture": 4343,
      "représentant": 4344,
      "expl": 4345,
      "comptant": 4346,
      "##ee": 4347,
      "##DRE": 4348,
      "180": 4349,
      "lecteurs": 4350,
      "premières": 4351,
      "##AGE": 4352,
      "médecin": 4353,
      "réussi": 4354,
      "Sc": 4355,
      "Gén": 4356,
      "Gre": 4357,
      "entrer": 4358,
      "obligations": 4359,
      "île": 4360,
      "##èvement": 4361,
      "respect": 4362,
      "ber": 4363,
      "MA": 4364,
      "victime": 4365,
      "Marcel": 4366,
      "##çait": 4367,
      "##cide": 4368,
      "Pét": 4369,
      "puissances": 4370,
      "Franc": 4371,
      "##olit": 4372,
      "util": 4373,
      "Ros": 4374,
      "arrêter": 4375,
      "payer": 4376,
      "Pre": 4377,
      "##nie": 4378,
      "chercher": 4379,
      "magist": 4380,
      "françaises": 4381,
      "##75": 4382,
      "confir": 4383,
      "##dier": 4384,
      "morts": 4385,
      "Made": 4386,
      "sentiment": 4387,
      "ef": 4388,
      "##iennes": 4389,
      "chré": 4390,
      "install": 4391,
      "retraite": 4392,
      "voitures": 4393,
      "impéri": 4394,
      "relations": 4395,
      "comprend": 4396,
      "réduit": 4397,
      "##chement": 4398,
      "démocra": 4399,
      "##alog": 4400,
      "pros": 4401,
      "magas": 4402,
      "Brest": 4403,
      "prote": 4404,
      "##ilités": 4405,
      "saurait": 4406,
      "impression": 4407,
      "cre": 4408,
      "Font": 4409,
      "hect": 4410,
      "drap": 4411,
      "nier": 4412,
      "##assi": 4413,
      "##ensi": 4414,
      "##arma": 4415,
      "socialistes": 4416,
      "##URE": 4417,
      "palais": 4418,
      "actuel": 4419,
      "gne": 4420,
      "##ban": 4421,
      "##itaire": 4422,
      "ral": 4423,
      "eaux": 4424,
      "vraiment": 4425,
      "examen": 4426,
      "##atin": 4427,
      "équipe": 4428,
      "Henry": 4429,
      "##quie": 4430,
      "Elles": 4431,
      "dépêche": 4432,
      "Fon": 4433,
      "écoles": 4434,
      "##OUV": 4435,
      "saint": 4436,
      "reine": 4437,
      "##èque": 4438,
      "##rite": 4439,
      "##MENTS": 4440,
      "Mau": 4441,
      "Club": 4442,
      "loy": 4443,
      "##ape": 4444,
      "fonctions": 4445,
      "Brux": 4446,
      "particulièrement": 4447,
      "Prin": 4448,
      "payé": 4449,
      "rappelle": 4450,
      "quitté": 4451,
      "Là": 4452,
      "##endie": 4453,
      "Ses": 4454,
      "règ": 4455,
      "##ix": 4456,
      "éviter": 4457,
      "renouv": 4458,
      "arrive": 4459,
      "lord": 4460,
      "Dame": 4461,
      "régiment": 4462,
      "##ïs": 4463,
      "nouvel": 4464,
      "##fier": 4465,
      "malheureux": 4466,
      "##ribution": 4467,
      "ordres": 4468,
      "ln": 4469,
      "##onniers": 4470,
      "filles": 4471,
      "exercice": 4472,
      "dispositions": 4473,
      "##éris": 4474,
      "subs": 4475,
      "##geois": 4476,
      "Fou": 4477,
      "offert": 4478,
      "petites": 4479,
      "##of": 4480,
      "villes": 4481,
      "absolument": 4482,
      "All": 4483,
      "Ta": 4484,
      "attendre": 4485,
      "inj": 4486,
      "régu": 4487,
      "parlé": 4488,
      "##esp": 4489,
      "##chn": 4490,
      "##ora": 4491,
      "tait": 4492,
      "sole": 4493,
      "##ht": 4494,
      "prol": 4495,
      "Nation": 4496,
      "##rection": 4497,
      "Amérique": 4498,
      "##PE": 4499,
      "105": 4500,
      "##90": 4501,
      "officiel": 4502,
      "regre": 4503,
      "existe": 4504,
      "##enti": 4505,
      "témoign": 4506,
      "##ution": 4507,
      "pénét": 4508,
      "extraord": 4509,
      "nat": 4510,
      "Dur": 4511,
      "die": 4512,
      "pit": 4513,
      "annoncé": 4514,
      "Guill": 4515,
      "nécessité": 4516,
      "offre": 4517,
      "supérieur": 4518,
      "##ONNE": 4519,
      "appelle": 4520,
      "##ara": 4521,
      "ate": 4522,
      "intention": 4523,
      "##mo": 4524,
      "Avec": 4525,
      "my": 4526,
      "##OC": 4527,
      "##anes": 4528,
      "lab": 4529,
      "réce": 4530,
      "Té": 4531,
      "##lon": 4532,
      "tort": 4533,
      "##RÉ": 4534,
      "présenté": 4535,
      "division": 4536,
      "Pau": 4537,
      "joie": 4538,
      "lecture": 4539,
      "vap": 4540,
      "##heur": 4541,
      "propriété": 4542,
      "Algérie": 4543,
      "##don": 4544,
      "##orie": 4545,
      "Lab": 4546,
      "plai": 4547,
      "if": 4548,
      "contrôle": 4549,
      "##adies": 4550,
      "App": 4551,
      "établir": 4552,
      "Sp": 4553,
      "inqui": 4554,
      "##aix": 4555,
      "économique": 4556,
      "Président": 4557,
      "##40": 4558,
      "belles": 4559,
      "##ORT": 4560,
      "unan": 4561,
      "Rouen": 4562,
      "élève": 4563,
      "pratique": 4564,
      "Hé": 4565,
      "complet": 4566,
      "éprouv": 4567,
      "Japon": 4568,
      "##aces": 4569,
      "établissement": 4570,
      "##vint": 4571,
      "Nic": 4572,
      "##IQUE": 4573,
      "Van": 4574,
      "embar": 4575,
      "Elys": 4576,
      "Tri": 4577,
      "sir": 4578,
      "##MB": 4579,
      "convers": 4580,
      "Parlement": 4581,
      "##érit": 4582,
      "familles": 4583,
      "liqu": 4584,
      "##mant": 4585,
      "##nex": 4586,
      "gent": 4587,
      "placés": 4588,
      "admis": 4589,
      "##ttom": 4590,
      "of": 4591,
      "employé": 4592,
      "parv": 4593,
      "chauff": 4594,
      "##veau": 4595,
      "dir": 4596,
      "doule": 4597,
      "Constant": 4598,
      "Stras": 4599,
      "##tives": 4600,
      "##Ue": 4601,
      "merveille": 4602,
      "taille": 4603,
      "Bonne": 4604,
      "##ailli": 4605,
      "bor": 4606,
      "laissé": 4607,
      "Vale": 4608,
      "René": 4609,
      "Quelques": 4610,
      "tué": 4611,
      "malad": 4612,
      "ouest": 4613,
      "Ba": 4614,
      "REN": 4615,
      "respec": 4616,
      "Mou": 4617,
      "EX": 4618,
      "infanterie": 4619,
      "coi": 4620,
      "élector": 4621,
      "bourg": 4622,
      "sérieux": 4623,
      "##curité": 4624,
      "répondre": 4625,
      "lots": 4626,
      "Trans": 4627,
      "##chée": 4628,
      "##reg": 4629,
      "125": 4630,
      "brû": 4631,
      "Madrid": 4632,
      "voté": 4633,
      "propriétaire": 4634,
      "Vie": 4635,
      "ambassadeur": 4636,
      "intro": 4637,
      "##OURS": 4638,
      "meilleur": 4639,
      "peur": 4640,
      "##TT": 4641,
      "GRAN": 4642,
      "base": 4643,
      "Bru": 4644,
      "fabric": 4645,
      "remis": 4646,
      "remplac": 4647,
      "Mmes": 4648,
      "##tière": 4649,
      "bomb": 4650,
      "ront": 4651,
      "Pu": 4652,
      "Orient": 4653,
      "nécessaires": 4654,
      "Bre": 4655,
      "hiver": 4656,
      "ee": 4657,
      "anglaise": 4658,
      "##MES": 4659,
      "AB": 4660,
      "Bruxelles": 4661,
      "##fié": 4662,
      "arme": 4663,
      "##30": 4664,
      "##ama": 4665,
      "compli": 4666,
      "irré": 4667,
      "continuer": 4668,
      "fortune": 4669,
      "Exposition": 4670,
      "Diman": 4671,
      "fen": 4672,
      "Vol": 4673,
      "civi": 4674,
      "##igné": 4675,
      "Bé": 4676,
      "##HE": 4677,
      "Bor": 4678,
      "particip": 4679,
      "attaque": 4680,
      "visage": 4681,
      "Bois": 4682,
      "chauss": 4683,
      "compr": 4684,
      "Juillet": 4685,
      "drame": 4686,
      "##mission": 4687,
      "##lets": 4688,
      "##titution": 4689,
      "préoc": 4690,
      "Française": 4691,
      "##ouard": 4692,
      "vais": 4693,
      "aime": 4694,
      "assister": 4695,
      "##esté": 4696,
      "Conf": 4697,
      "total": 4698,
      "quitter": 4699,
      "##TÉ": 4700,
      "Allemands": 4701,
      "Denis": 4702,
      "puissance": 4703,
      "##cn": 4704,
      "discut": 4705,
      "vac": 4706,
      "pourront": 4707,
      "Har": 4708,
      "##10": 4709,
      "élo": 4710,
      "vins": 4711,
      "bataille": 4712,
      "Tou": 4713,
      "##reté": 4714,
      "dress": 4715,
      "Lors": 4716,
      "victimes": 4717,
      "be": 4718,
      "##uez": 4719,
      "objets": 4720,
      "résul": 4721,
      "culti": 4722,
      "camarades": 4723,
      "##80": 4724,
      "sév": 4725,
      "mode": 4726,
      "dames": 4727,
      "entier": 4728,
      "##reurs": 4729,
      "##onnés": 4730,
      "Pic": 4731,
      "Belle": 4732,
      "##guer": 4733,
      "fleurs": 4734,
      "désire": 4735,
      "difficultés": 4736,
      "enseignement": 4737,
      "douce": 4738,
      "##po": 4739,
      "prononcé": 4740,
      "Mes": 4741,
      "##ariat": 4742,
      "far": 4743,
      "éclai": 4744,
      "##èles": 4745,
      "Pé": 4746,
      "Sous": 4747,
      "Hon": 4748,
      "pel": 4749,
      "##ker": 4750,
      "ancienne": 4751,
      "coû": 4752,
      "##phe": 4753,
      "nul": 4754,
      "Associ": 4755,
      "allemands": 4756,
      "parties": 4757,
      "So": 4758,
      "rt": 4759,
      "ouvrage": 4760,
      "pan": 4761,
      "importante": 4762,
      "Gab": 4763,
      "Mos": 4764,
      "Tar": 4765,
      "nations": 4766,
      "Lam": 4767,
      "échapp": 4768,
      "##20": 4769,
      "oe": 4770,
      "##sib": 4771,
      "Porte": 4772,
      "graves": 4773,
      "Mars": 4774,
      "Anglais": 4775,
      "qua": 4776,
      "faible": 4777,
      "période": 4778,
      "sûr": 4779,
      "cout": 4780,
      "cherche": 4781,
      "700": 4782,
      "voulait": 4783,
      "épreuve": 4784,
      "##rè": 4785,
      "##ecture": 4786,
      "Parmi": 4787,
      "réserv": 4788,
      "##qua": 4789,
      "norm": 4790,
      "tromp": 4791,
      "compt": 4792,
      "prêt": 4793,
      "##uf": 4794,
      "quarante": 4795,
      "vieille": 4796,
      "##ky": 4797,
      "Eug": 4798,
      "##crits": 4799,
      "repouss": 4800,
      "Lille": 4801,
      "études": 4802,
      "tarif": 4803,
      "application": 4804,
      "courage": 4805,
      "union": 4806,
      "moitié": 4807,
      "nn": 4808,
      "faibles": 4809,
      "fallait": 4810,
      "tonnes": 4811,
      "détermin": 4812,
      "influence": 4813,
      "##audi": 4814,
      "104": 4815,
      "rues": 4816,
      "COMP": 4817,
      "##chesse": 4818,
      "catég": 4819,
      "agent": 4820,
      "sor": 4821,
      "##atifs": 4822,
      "##ypte": 4823,
      "placé": 4824,
      "130": 4825,
      "sinc": 4826,
      "Va": 4827,
      "Germain": 4828,
      "Phili": 4829,
      "##bs": 4830,
      "Thom": 4831,
      "propor": 4832,
      "##tude": 4833,
      "individu": 4834,
      "Sav": 4835,
      "législ": 4836,
      "##rey": 4837,
      "escad": 4838,
      "##onnais": 4839,
      "##ks": 4840,
      "impôt": 4841,
      "##TRE": 4842,
      "courses": 4843,
      "emport": 4844,
      "Suisse": 4845,
      "Légion": 4846,
      "dépenses": 4847,
      "##atre": 4848,
      "transf": 4849,
      "ail": 4850,
      "équ": 4851,
      "pâ": 4852,
      "Mus": 4853,
      "nement": 4854,
      "vouloir": 4855,
      "pil": 4856,
      "tique": 4857,
      "lesquelles": 4858,
      "existence": 4859,
      "ui": 4860,
      "simplement": 4861,
      "augmentation": 4862,
      "##ceaux": 4863,
      "##60": 4864,
      "intelli": 4865,
      "##ules": 4866,
      "lanc": 4867,
      "Toutes": 4868,
      "traite": 4869,
      "spéciale": 4870,
      "##ind": 4871,
      "dt": 4872,
      "révé": 4873,
      "manque": 4874,
      "soumis": 4875,
      "Bro": 4876,
      "Aff": 4877,
      "##ongrès": 4878,
      "IV": 4879,
      "quart": 4880,
      "souh": 4881,
      "débat": 4882,
      "excellent": 4883,
      "représentants": 4884,
      "connaissance": 4885,
      "##lc": 4886,
      "pér": 4887,
      "tôt": 4888,
      "##vel": 4889,
      "suit": 4890,
      "papier": 4891,
      "##llll": 4892,
      "IL": 4893,
      "1°": 4894,
      "mens": 4895,
      "Inf": 4896,
      "affec": 4897,
      "##quant": 4898,
      "OR": 4899,
      "revenu": 4900,
      "Argent": 4901,
      "élevé": 4902,
      "##fait": 4903,
      "##IR": 4904,
      "##cept": 4905,
      "May": 4906,
      "act": 4907,
      "protest": 4908,
      "Hug": 4909,
      "élu": 4910,
      "frères": 4911,
      "répondu": 4912,
      "Gl": 4913,
      "artiste": 4914,
      "engag": 4915,
      "portée": 4916,
      "bis": 4917,
      "Congrès": 4918,
      "Rio": 4919,
      "fc": 4920,
      "clôture": 4921,
      "##ba": 4922,
      "durée": 4923,
      "matériel": 4924,
      "Reich": 4925,
      "café": 4926,
      "assassin": 4927,
      "cinquante": 4928,
      "Ray": 4929,
      "Dès": 4930,
      "clair": 4931,
      "Dub": 4932,
      "##xi": 4933,
      "##ormais": 4934,
      "Sou": 4935,
      "prov": 4936,
      "##dien": 4937,
      "##aises": 4938,
      "mm": 4939,
      "vig": 4940,
      "parl": 4941,
      "Roche": 4942,
      "##illard": 4943,
      "Avant": 4944,
      "orchestre": 4945,
      "moindre": 4946,
      "récl": 4947,
      "##chent": 4948,
      "entour": 4949,
      "Dom": 4950,
      "procédé": 4951,
      "div": 4952,
      "délai": 4953,
      "##ocation": 4954,
      "Antoine": 4955,
      "préoccu": 4956,
      "caisse": 4957,
      "##alle": 4958,
      "COMM": 4959,
      "compter": 4960,
      "procéd": 4961,
      "retard": 4962,
      "##gement": 4963,
      "celte": 4964,
      "##ension": 4965,
      "Pan": 4966,
      "permet": 4967,
      "pomp": 4968,
      "déch": 4969,
      "tap": 4970,
      "artis": 4971,
      "##olle": 4972,
      "célèbre": 4973,
      "soleil": 4974,
      "soix": 4975,
      "adressé": 4976,
      "har": 4977,
      "côte": 4978,
      "##AIRE": 4979,
      "##iu": 4980,
      "phy": 4981,
      "##uites": 4982,
      "délib": 4983,
      "##ormes": 4984,
      "récemment": 4985,
      "station": 4986,
      "ordonn": 4987,
      "##CO": 4988,
      "##adis": 4989,
      "parents": 4990,
      "##ilé": 4991,
      "solution": 4992,
      "accueil": 4993,
      "##cidents": 4994,
      "moyenne": 4995,
      "cité": 4996,
      "##pare": 4997,
      "nie": 4998,
      "constitution": 4999,
      "##pa": 5000,
      "trouvent": 5001,
      "exemp": 5002,
      "caval": 5003,
      "soldat": 5004,
      "mémoire": 5005,
      "Sau": 5006,
      "condition": 5007,
      "rh": 5008,
      "répondit": 5009,
      "Portug": 5010,
      "##vière": 5011,
      "PR": 5012,
      "mut": 5013,
      "aient": 5014,
      "inuti": 5015,
      "Croix": 5016,
      "Als": 5017,
      "coul": 5018,
      "Lib": 5019,
      "étais": 5020,
      "cris": 5021,
      "parfois": 5022,
      "phil": 5023,
      "##nant": 5024,
      "écriv": 5025,
      "pieds": 5026,
      "##auté": 5027,
      "ut": 5028,
      "##endi": 5029,
      "rapidement": 5030,
      "important": 5031,
      "projets": 5032,
      "##IB": 5033,
      "match": 5034,
      "HOTEL": 5035,
      "san": 5036,
      "Fédération": 5037,
      "##fre": 5038,
      "cuir": 5039,
      "démont": 5040,
      "vivre": 5041,
      "Strasbourg": 5042,
      "rapports": 5043,
      "patrie": 5044,
      "voyageurs": 5045,
      "ressour": 5046,
      "##mit": 5047,
      "he": 5048,
      "Cer": 5049,
      "lumière": 5050,
      "fantais": 5051,
      "##11": 5052,
      "Assemblée": 5053,
      "village": 5054,
      "autorités": 5055,
      "ga": 5056,
      "publié": 5057,
      "BAN": 5058,
      "##oureux": 5059,
      "##maines": 5060,
      "coloni": 5061,
      "lai": 5062,
      "##ATIONS": 5063,
      "trés": 5064,
      "Dis": 5065,
      "##jon": 5066,
      "ajouter": 5067,
      "déliv": 5068,
      "avanc": 5069,
      "assure": 5070,
      "cle": 5071,
      "Champs": 5072,
      "Cela": 5073,
      "Seu": 5074,
      "ds": 5075,
      "paru": 5076,
      "endroit": 5077,
      "èt": 5078,
      "ts": 5079,
      "PA": 5080,
      "dissi": 5081,
      "##QUES": 5082,
      "CA": 5083,
      "##arité": 5084,
      "Bons": 5085,
      "bd": 5086,
      "cérémonie": 5087,
      "##igu": 5088,
      "demandes": 5089,
      "##ulp": 5090,
      "ies": 5091,
      "silence": 5092,
      "lire": 5093,
      "navires": 5094,
      "Maroc": 5095,
      "dépôt": 5096,
      "##rin": 5097,
      "exposé": 5098,
      "##ok": 5099,
      "##ony": 5100,
      "pli": 5101,
      "disant": 5102,
      "rendus": 5103,
      "Cin": 5104,
      "client": 5105,
      "##quement": 5106,
      "Ann": 5107,
      "onze": 5108,
      "froid": 5109,
      "morte": 5110,
      "Haute": 5111,
      "Vil": 5112,
      "conséquence": 5113,
      "sortir": 5114,
      "vicom": 5115,
      "Ga": 5116,
      "##OY": 5117,
      "sauf": 5118,
      "avoué": 5119,
      "3°": 5120,
      "accepter": 5121,
      "incendie": 5122,
      "uni": 5123,
      "Laf": 5124,
      "magnifique": 5125,
      "##uration": 5126,
      "page": 5127,
      "conte": 5128,
      "dout": 5129,
      "écrire": 5130,
      "##ples": 5131,
      "DI": 5132,
      "solen": 5133,
      "catholique": 5134,
      "POUR": 5135,
      "Fa": 5136,
      "##leine": 5137,
      "##reux": 5138,
      "##cou": 5139,
      "Comment": 5140,
      "communes": 5141,
      "##être": 5142,
      "##go": 5143,
      "témoins": 5144,
      "cord": 5145,
      "tenant": 5146,
      "##mon": 5147,
      "élection": 5148,
      "1a": 5149,
      "défendre": 5150,
      "##itre": 5151,
      "##rents": 5152,
      "traitement": 5153,
      "entièrement": 5154,
      "félic": 5155,
      "étage": 5156,
      "vait": 5157,
      "Afrique": 5158,
      "##nr": 5159,
      "réunis": 5160,
      "faux": 5161,
      "350": 5162,
      "##tra": 5163,
      "VI": 5164,
      "séjour": 5165,
      "production": 5166,
      "Commer": 5167,
      "satisfaction": 5168,
      "ba": 5169,
      "histor": 5170,
      "liquid": 5171,
      "Guy": 5172,
      "Lac": 5173,
      "effic": 5174,
      "constr": 5175,
      "##érir": 5176,
      "vint": 5177,
      "##pren": 5178,
      "chale": 5179,
      "recommand": 5180,
      "convo": 5181,
      "revol": 5182,
      "empêcher": 5183,
      "lieux": 5184,
      "suivants": 5185,
      "central": 5186,
      "tableau": 5187,
      "principaux": 5188,
      "empire": 5189,
      "##imité": 5190,
      "Gou": 5191,
      "##ourt": 5192,
      "obser": 5193,
      "##usi": 5194,
      "ja": 5195,
      "Egypte": 5196,
      "assi": 5197,
      "Guer": 5198,
      "agri": 5199,
      "He": 5200,
      "joli": 5201,
      "sociétés": 5202,
      "band": 5203,
      "##mett": 5204,
      "conseils": 5205,
      "réuss": 5206,
      "##jec": 5207,
      "##umé": 5208,
      "orateur": 5209,
      "##mul": 5210,
      "core": 5211,
      "##han": 5212,
      "bataill": 5213,
      "##arme": 5214,
      "britannique": 5215,
      "cardin": 5216,
      "banque": 5217,
      "gouverneur": 5218,
      "dr": 5219,
      "##70": 5220,
      "principes": 5221,
      "Fi": 5222,
      "profonde": 5223,
      "##ommes": 5224,
      "raisons": 5225,
      "estime": 5226,
      "création": 5227,
      "##aii": 5228,
      "italien": 5229,
      "Commission": 5230,
      "AC": 5231,
      "subi": 5232,
      "Bernard": 5233,
      "avantage": 5234,
      "Gau": 5235,
      "rappor": 5236,
      "incident": 5237,
      "AM": 5238,
      "tic": 5239,
      "vertu": 5240,
      "quelles": 5241,
      "médi": 5242,
      "inn": 5243,
      "repris": 5244,
      "applaud": 5245,
      "ration": 5246,
      "Royal": 5247,
      "vif": 5248,
      "éli": 5249,
      "événements": 5250,
      "interv": 5251,
      "dessous": 5252,
      "confr": 5253,
      "seuls": 5254,
      "russes": 5255,
      "prati": 5256,
      "##ernant": 5257,
      "myst": 5258,
      "mas": 5259,
      "##euse": 5260,
      "enth": 5261,
      "##ola": 5262,
      "Sta": 5263,
      "semaines": 5264,
      "flé": 5265,
      "roman": 5266,
      "##ingu": 5267,
      "XV": 5268,
      "populaire": 5269,
      "ON": 5270,
      "construction": 5271,
      "CO": 5272,
      "peau": 5273,
      "##PH": 5274,
      "##iet": 5275,
      "équip": 5276,
      "recev": 5277,
      "tranqu": 5278,
      "##ana": 5279,
      "dat": 5280,
      "##dici": 5281,
      "go": 5282,
      "vapeur": 5283,
      "fati": 5284,
      "Cou": 5285,
      "bru": 5286,
      "précip": 5287,
      "utile": 5288,
      "Vinc": 5289,
      "##oile": 5290,
      "banquet": 5291,
      "jugement": 5292,
      "Ele": 5293,
      "inaug": 5294,
      "chan": 5295,
      "bri": 5296,
      "rant": 5297,
      "##fication": 5298,
      "##ption": 5299,
      "UNE": 5300,
      "territoire": 5301,
      "##aies": 5302,
      "##chait": 5303,
      "montrer": 5304,
      "##inois": 5305,
      "ore": 5306,
      "habitants": 5307,
      "##onible": 5308,
      "dign": 5309,
      "##fa": 5310,
      "##ousias": 5311,
      "##isson": 5312,
      "figure": 5313,
      "##OUT": 5314,
      "divis": 5315,
      "Sh": 5316,
      "JOUR": 5317,
      "##oger": 5318,
      "##raine": 5319,
      "##als": 5320,
      "##éraire": 5321,
      "Cab": 5322,
      "moderne": 5323,
      "MO": 5324,
      "traî": 5325,
      "généra": 5326,
      "matière": 5327,
      "fame": 5328,
      "##UM": 5329,
      "sons": 5330,
      "capitale": 5331,
      "Far": 5332,
      "veau": 5333,
      "##agement": 5334,
      "##riers": 5335,
      "##gra": 5336,
      "##lications": 5337,
      "certainement": 5338,
      "vernement": 5339,
      "colonies": 5340,
      "##ormé": 5341,
      "##III": 5342,
      "MAIS": 5343,
      "immense": 5344,
      "émotion": 5345,
      "bonheur": 5346,
      "maladie": 5347,
      "03": 5348,
      "génie": 5349,
      "secret": 5350,
      "1e": 5351,
      "comédie": 5352,
      "##tic": 5353,
      "##ster": 5354,
      "fixé": 5355,
      "out": 5356,
      "tés": 5357,
      "Mines": 5358,
      "inconn": 5359,
      "##érées": 5360,
      "rej": 5361,
      "##olue": 5362,
      "Chap": 5363,
      "rappro": 5364,
      "Oise": 5365,
      "pè": 5366,
      "exposition": 5367,
      "environs": 5368,
      "iss": 5369,
      "##lot": 5370,
      "##acité": 5371,
      "AD": 5372,
      "tirer": 5373,
      "insu": 5374,
      "quer": 5375,
      "arch": 5376,
      "frontière": 5377,
      "volume": 5378,
      "Lar": 5379,
      "modes": 5380,
      "veulent": 5381,
      "remise": 5382,
      "douze": 5383,
      "malade": 5384,
      "##oindre": 5385,
      "sécurité": 5386,
      "gre": 5387,
      "régl": 5388,
      "##feu": 5389,
      "ME": 5390,
      "##igueur": 5391,
      "appréci": 5392,
      "##éron": 5393,
      "coin": 5394,
      "Da": 5395,
      "##yer": 5396,
      "résolu": 5397,
      "fur": 5398,
      "taux": 5399,
      "fun": 5400,
      "Ven": 5401,
      "pain": 5402,
      "tableaux": 5403,
      "Thé": 5404,
      "##ës": 5405,
      "Go": 5406,
      "découv": 5407,
      "officielle": 5408,
      "##PAR": 5409,
      "évi": 5410,
      "marque": 5411,
      "##ST": 5412,
      "Bourg": 5413,
      "diss": 5414,
      "##dement": 5415,
      "##aves": 5416,
      "dam": 5417,
      "parisienne": 5418,
      "tab": 5419,
      "##isément": 5420,
      "garantie": 5421,
      "extraordinaire": 5422,
      "classes": 5423,
      "démission": 5424,
      "##fice": 5425,
      "Voy": 5426,
      "techn": 5427,
      "mauvaise": 5428,
      "marins": 5429,
      "enreg": 5430,
      "##umes": 5431,
      "principal": 5432,
      "tl": 5433,
      "Ind": 5434,
      "##inte": 5435,
      "prononc": 5436,
      "épar": 5437,
      "Association": 5438,
      "##mat": 5439,
      "##ua": 5440,
      "##mier": 5441,
      "Chem": 5442,
      "maladies": 5443,
      "Dar": 5444,
      "disput": 5445,
      "##dication": 5446,
      "##ague": 5447,
      "princesse": 5448,
      "Cir": 5449,
      "délégation": 5450,
      "catholiques": 5451,
      "##érieurs": 5452,
      "science": 5453,
      "##cins": 5454,
      "las": 5455,
      "140": 5456,
      "##oulez": 5457,
      "automobile": 5458,
      "soixante": 5459,
      "##tf": 5460,
      "arrest": 5461,
      "##airement": 5462,
      "perf": 5463,
      "bron": 5464,
      "provisoire": 5465,
      "indépend": 5466,
      "cesse": 5467,
      "suppri": 5468,
      "Bra": 5469,
      "##cession": 5470,
      "radi": 5471,
      "Genève": 5472,
      "aliment": 5473,
      "brut": 5474,
      "garçon": 5475,
      "mines": 5476,
      "##arie": 5477,
      "adjoint": 5478,
      "terrible": 5479,
      "##tées": 5480,
      "Dun": 5481,
      "blé": 5482,
      "##diction": 5483,
      "vaut": 5484,
      "tal": 5485,
      "Ath": 5486,
      "auteurs": 5487,
      "Univers": 5488,
      "Tra": 5489,
      "espoir": 5490,
      "électeurs": 5491,
      "##rouver": 5492,
      "##ueill": 5493,
      "suivantes": 5494,
      "Riv": 5495,
      "##ielle": 5496,
      "ench": 5497,
      "désesp": 5498,
      "our": 5499,
      "##ize": 5500,
      "appelé": 5501,
      "boul": 5502,
      "sénateur": 5503,
      "spec": 5504,
      "mè": 5505,
      "mobil": 5506,
      "Pou": 5507,
      "essent": 5508,
      "décis": 5509,
      "Marne": 5510,
      "##ij": 5511,
      "règle": 5512,
      "450": 5513,
      "audience": 5514,
      "connaît": 5515,
      "rencontre": 5516,
      "racont": 5517,
      "##bonne": 5518,
      "##cal": 5519,
      "inde": 5520,
      "##ty": 5521,
      "##ley": 5522,
      "##erte": 5523,
      "groupes": 5524,
      "Sant": 5525,
      "qualités": 5526,
      "##ceau": 5527,
      "##onds": 5528,
      "commenc": 5529,
      "sci": 5530,
      "gue": 5531,
      "##ata": 5532,
      "pages": 5533,
      "San": 5534,
      "ves": 5535,
      "manifestation": 5536,
      "Vill": 5537,
      "descend": 5538,
      "désormais": 5539,
      "talent": 5540,
      "approuv": 5541,
      "Madame": 5542,
      "commencé": 5543,
      "carte": 5544,
      "dp": 5545,
      "domes": 5546,
      "##vr": 5547,
      "##aindre": 5548,
      "##berg": 5549,
      "postes": 5550,
      "côt": 5551,
      "longueur": 5552,
      "##ke": 5553,
      "proclam": 5554,
      "##dr": 5555,
      "uu": 5556,
      "##erm": 5557,
      "céder": 5558,
      "Alexandre": 5559,
      "découvert": 5560,
      "##dications": 5561,
      "tement": 5562,
      "bé": 5563,
      "suffit": 5564,
      "probable": 5565,
      "recettes": 5566,
      "vivement": 5567,
      "##din": 5568,
      "convain": 5569,
      "salon": 5570,
      "décès": 5571,
      "chang": 5572,
      "éloign": 5573,
      "riche": 5574,
      "Edouard": 5575,
      "déclarations": 5576,
      "changement": 5577,
      "##osph": 5578,
      "Tunis": 5579,
      "##ications": 5580,
      "den": 5581,
      "##CL": 5582,
      "##itude": 5583,
      "Très": 5584,
      "problème": 5585,
      "propag": 5586,
      "##érature": 5587,
      "Gh": 5588,
      "théâ": 5589,
      "##nées": 5590,
      "##ussent": 5591,
      "encour": 5592,
      "Ali": 5593,
      "Mari": 5594,
      "langue": 5595,
      "venue": 5596,
      "civile": 5597,
      "Entre": 5598,
      "remplacement": 5599,
      "ec": 5600,
      "CL": 5601,
      "sieur": 5602,
      "recueil": 5603,
      "Ai": 5604,
      "meilleurs": 5605,
      "combien": 5606,
      "##ople": 5607,
      "nue": 5608,
      "JU": 5609,
      "900": 5610,
      "portes": 5611,
      "pharma": 5612,
      "1S": 5613,
      "■■■": 5614,
      "sœur": 5615,
      "procureur": 5616,
      "Dire": 5617,
      "Pourquoi": 5618,
      "parait": 5619,
      "##agnes": 5620,
      "morale": 5621,
      "physi": 5622,
      "europ": 5623,
      "Dav": 5624,
      "propose": 5625,
      "scrutin": 5626,
      "ns": 5627,
      "##itant": 5628,
      "##uments": 5629,
      "Mass": 5630,
      "pêche": 5631,
      "réforme": 5632,
      "avi": 5633,
      "Don": 5634,
      "##icien": 5635,
      "At": 5636,
      "dér": 5637,
      "Sam": 5638,
      "importe": 5639,
      "Lis": 5640,
      "fonctionnaires": 5641,
      "tels": 5642,
      "négociations": 5643,
      "alliés": 5644,
      "##rio": 5645,
      "venus": 5646,
      "IS": 5647,
      "immeu": 5648,
      "Juin": 5649,
      "ff": 5650,
      "hauteur": 5651,
      "europé": 5652,
      "ennemis": 5653,
      "avent": 5654,
      "tribune": 5655,
      "##ements": 5656,
      "##gs": 5657,
      "navire": 5658,
      "nal": 5659,
      "défaut": 5660,
      "bleu": 5661,
      "##criptions": 5662,
      "honor": 5663,
      "envers": 5664,
      "aveu": 5665,
      "Dau": 5666,
      "##irs": 5667,
      "##ettes": 5668,
      "œil": 5669,
      "reconnaître": 5670,
      "Ci": 5671,
      "circons": 5672,
      "concernant": 5673,
      "réalité": 5674,
      "##isant": 5675,
      "Jusqu": 5676,
      "gagner": 5677,
      "FER": 5678,
      "sortie": 5679,
      "Obli": 5680,
      "has": 5681,
      "##by": 5682,
      "##quette": 5683,
      "##hon": 5684,
      "phot": 5685,
      "devront": 5686,
      "gram": 5687,
      "##rets": 5688,
      "Maj": 5689,
      "##usions": 5690,
      "Madeleine": 5691,
      "##outons": 5692,
      "honn": 5693,
      "##till": 5694,
      "##pen": 5695,
      "##vy": 5696,
      "démar": 5697,
      "arts": 5698,
      "##gné": 5699,
      "Brés": 5700,
      "##meur": 5701,
      "parfaitement": 5702,
      "sensible": 5703,
      "opération": 5704,
      "##DIT": 5705,
      "dépend": 5706,
      "##iiiiiiii": 5707,
      "ea": 5708,
      "mérite": 5709,
      "##ios": 5710,
      "montant": 5711,
      "circulation": 5712,
      "Celui": 5713,
      "candidats": 5714,
      "rô": 5715,
      "##atio": 5716,
      "##érieures": 5717,
      "fo": 5718,
      "conscience": 5719,
      "devra": 5720,
      "règlement": 5721,
      "Dimanche": 5722,
      "usine": 5723,
      "promen": 5724,
      "sentiments": 5725,
      "Etienne": 5726,
      "montré": 5727,
      "Mex": 5728,
      "résistance": 5729,
      "fie": 5730,
      "rat": 5731,
      "Ouv": 5732,
      "revolver": 5733,
      "téléph": 5734,
      "monté": 5735,
      "salut": 5736,
      "Fig": 5737,
      "##cières": 5738,
      "donnera": 5739,
      "jeunesse": 5740,
      "belge": 5741,
      "##tifi": 5742,
      "IM": 5743,
      "##isa": 5744,
      "Oh": 5745,
      "origine": 5746,
      "déjeu": 5747,
      "Suez": 5748,
      "opposition": 5749,
      "##illi": 5750,
      "##ouverte": 5751,
      "Sec": 5752,
      "Trav": 5753,
      "##ERT": 5754,
      "cost": 5755,
      "ltal": 5756,
      "jouer": 5757,
      "##igny": 5758,
      "Nice": 5759,
      "quantité": 5760,
      "Plusieurs": 5761,
      "quels": 5762,
      "Fré": 5763,
      "Hal": 5764,
      "indispens": 5765,
      "160": 5766,
      "##itimes": 5767,
      "Im": 5768,
      "##ington": 5769,
      "Janvier": 5770,
      "jamb": 5771,
      "EST": 5772,
      "Rich": 5773,
      "##olte": 5774,
      "rr": 5775,
      "##lés": 5776,
      "Guillaume": 5777,
      "181": 5778,
      "travailleurs": 5779,
      "Cham": 5780,
      "lâ": 5781,
      "##LET": 5782,
      "pression": 5783,
      "##ISS": 5784,
      "let": 5785,
      "Mise": 5786,
      "monument": 5787,
      "puisqu": 5788,
      "Hol": 5789,
      "Louv": 5790,
      "curieux": 5791,
      "##pri": 5792,
      "##çs": 5793,
      "envoyer": 5794,
      "BE": 5795,
      "reprendre": 5796,
      "##oii": 5797,
      "Alger": 5798,
      "pouvons": 5799,
      "ches": 5800,
      "blanche": 5801,
      "préfecture": 5802,
      "supérieure": 5803,
      "Bure": 5804,
      "peuples": 5805,
      "perman": 5806,
      "candidat": 5807,
      "cop": 5808,
      "##adé": 5809,
      "vaste": 5810,
      "tf": 5811,
      "Ecl": 5812,
      "##itations": 5813,
      "soie": 5814,
      "tâche": 5815,
      "décor": 5816,
      "nist": 5817,
      "enthousias": 5818,
      "##rain": 5819,
      "QU": 5820,
      "ball": 5821,
      "canton": 5822,
      "Max": 5823,
      "##ciences": 5824,
      "Cat": 5825,
      "Malgré": 5826,
      "singu": 5827,
      "##oléon": 5828,
      "##idité": 5829,
      "cardinal": 5830,
      "lan": 5831,
      "éb": 5832,
      "Brésil": 5833,
      "ménage": 5834,
      "##eth": 5835,
      "féd": 5836,
      "##érable": 5837,
      "attendant": 5838,
      "Ay": 5839,
      "admirable": 5840,
      "bénéfice": 5841,
      "##chev": 5842,
      "oh": 5843,
      "##gh": 5844,
      "ouvrir": 5845,
      "autrich": 5846,
      "fas": 5847,
      "Ru": 5848,
      "Boulogne": 5849,
      "ij": 5850,
      "louer": 5851,
      "souhait": 5852,
      "orient": 5853,
      "accept": 5854,
      "iné": 5855,
      "##pel": 5856,
      "honorable": 5857,
      "##iteur": 5858,
      "##aliste": 5859,
      "Trés": 5860,
      "appui": 5861,
      "##ost": 5862,
      "##icale": 5863,
      "réuni": 5864,
      "##sibilité": 5865,
      "sage": 5866,
      "pouvant": 5867,
      "##ports": 5868,
      "##quier": 5869,
      "côtés": 5870,
      "##rist": 5871,
      "106": 5872,
      "Eugène": 5873,
      "régions": 5874,
      "Ler": 5875,
      "##gations": 5876,
      "##cite": 5877,
      "ST": 5878,
      "comprendre": 5879,
      "Ceux": 5880,
      "##ei": 5881,
      "##ilh": 5882,
      "noire": 5883,
      "brus": 5884,
      "obsèques": 5885,
      "prési": 5886,
      "Comédie": 5887,
      "énergie": 5888,
      "ss": 5889,
      "Art": 5890,
      "flam": 5891,
      "Eu": 5892,
      "##OG": 5893,
      "ressources": 5894,
      "rire": 5895,
      "àla": 5896,
      "surveill": 5897,
      "violent": 5898,
      "désign": 5899,
      "troupe": 5900,
      "voisin": 5901,
      "cort": 5902,
      "dë": 5903,
      "vitesse": 5904,
      "Fac": 5905,
      "content": 5906,
      "Bay": 5907,
      "perdre": 5908,
      "toutefois": 5909,
      "RÉ": 5910,
      "vre": 5911,
      "luxe": 5912,
      "pose": 5913,
      "expression": 5914,
      "Tré": 5915,
      "Simon": 5916,
      "AP": 5917,
      "républicain": 5918,
      "AUT": 5919,
      "##omac": 5920,
      "Lucien": 5921,
      "conç": 5922,
      "aujour": 5923,
      "gê": 5924,
      "judici": 5925,
      "FRANÇ": 5926,
      "SAIN": 5927,
      "bran": 5928,
      "prie": 5929,
      "Chau": 5930,
      "créer": 5931,
      "##apt": 5932,
      "naissance": 5933,
      "abond": 5934,
      "ports": 5935,
      "##îi": 5936,
      "indig": 5937,
      "confort": 5938,
      "expérience": 5939,
      "soirs": 5940,
      "rapporteur": 5941,
      "avia": 5942,
      "charges": 5943,
      "##bres": 5944,
      "reconnu": 5945,
      "##ÉE": 5946,
      "pot": 5947,
      "sty": 5948,
      "##dy": 5949,
      "dn": 5950,
      "Colomb": 5951,
      "Revue": 5952,
      "report": 5953,
      "Chant": 5954,
      "donnent": 5955,
      "##ètes": 5956,
      "curé": 5957,
      "remarquer": 5958,
      "doux": 5959,
      "mad": 5960,
      "heureuse": 5961,
      "Hi": 5962,
      "attent": 5963,
      "inspir": 5964,
      "Cherbourg": 5965,
      "GRAND": 5966,
      "expert": 5967,
      "##avantage": 5968,
      "éduc": 5969,
      "proté": 5970,
      "vel": 5971,
      "Ni": 5972,
      "tme": 5973,
      "Ol": 5974,
      "gagné": 5975,
      "distance": 5976,
      "##CS": 5977,
      "donnant": 5978,
      "##jj": 5979,
      "songe": 5980,
      "inquié": 5981,
      "médic": 5982,
      "raient": 5983,
      "Dum": 5984,
      "sieurs": 5985,
      "##nels": 5986,
      "Rég": 5987,
      "hé": 5988,
      "abou": 5989,
      "minis": 5990,
      "portrait": 5991,
      "syndicat": 5992,
      "Bart": 5993,
      "Italiens": 5994,
      "Trésor": 5995,
      "##ïi": 5996,
      "##quait": 5997,
      "Jo": 5998,
      "02": 5999,
      "Toulon": 6000,
      "##nc": 6001,
      "Mat": 6002,
      "Hav": 6003,
      "menac": 6004,
      "##olo": 6005,
      "Cé": 6006,
      "prolong": 6007,
      "tombe": 6008,
      "tiers": 6009,
      "Pari": 6010,
      "##isées": 6011,
      "Laz": 6012,
      "session": 6013,
      "##EST": 6014,
      "maintenir": 6015,
      "pauvres": 6016,
      "115": 6017,
      "pouvoirs": 6018,
      "Arc": 6019,
      "cro": 6020,
      "affi": 6021,
      "trains": 6022,
      "poit": 6023,
      "lier": 6024,
      "##oyé": 6025,
      "Ton": 6026,
      "lic": 6027,
      "VENDRE": 6028,
      "républicains": 6029,
      "vaisse": 6030,
      "sociale": 6031,
      "##neur": 6032,
      "##àr": 6033,
      "vir": 6034,
      "marchandises": 6035,
      "bande": 6036,
      "clar": 6037,
      "émis": 6038,
      "citoyens": 6039,
      "penser": 6040,
      "semblait": 6041,
      "revenir": 6042,
      "prisonniers": 6043,
      "demeure": 6044,
      "Ti": 6045,
      "assuré": 6046,
      "expédi": 6047,
      "lions": 6048,
      "besoins": 6049,
      "demanda": 6050,
      "##riques": 6051,
      "culture": 6052,
      "##ses": 6053,
      "ramen": 6054,
      "jury": 6055,
      "défend": 6056,
      "couleurs": 6057,
      "jolie": 6058,
      "mière": 6059,
      "##anm": 6060,
      "responsabilité": 6061,
      "vil": 6062,
      "Gast": 6063,
      "##onnière": 6064,
      "##illers": 6065,
      "janv": 6066,
      "rig": 6067,
      "agriculture": 6068,
      "faudrait": 6069,
      "Rien": 6070,
      "Marc": 6071,
      "##IES": 6072,
      "pourraient": 6073,
      "initiative": 6074,
      "soul": 6075,
      "iv": 6076,
      "##ricité": 6077,
      "group": 6078,
      "Méditer": 6079,
      "##nl": 6080,
      "##fai": 6081,
      "arrière": 6082,
      "litté": 6083,
      "Hong": 6084,
      "##atrice": 6085,
      "##LL": 6086,
      "##kin": 6087,
      "More": 6088,
      "torp": 6089,
      "appareil": 6090,
      "##alogue": 6091,
      "dîner": 6092,
      "##cte": 6093,
      "oi": 6094,
      "##mir": 6095,
      "##tible": 6096,
      "##ald": 6097,
      "sement": 6098,
      "permettre": 6099,
      "fu": 6100,
      "écout": 6101,
      "Chamb": 6102,
      "digne": 6103,
      "appuy": 6104,
      "ajour": 6105,
      "erreur": 6106,
      "radical": 6107,
      "chute": 6108,
      "Ah": 6109,
      "##teau": 6110,
      "##lletin": 6111,
      "1914": 6112,
      "Matin": 6113,
      "Demain": 6114,
      "Math": 6115,
      "appa": 6116,
      "ottom": 6117,
      "dirig": 6118,
      "convient": 6119,
      "dents": 6120,
      "##rices": 6121,
      "##ulé": 6122,
      "laine": 6123,
      "##court": 6124,
      "##uni": 6125,
      "facilement": 6126,
      "Philippe": 6127,
      "triste": 6128,
      "cime": 6129,
      "espère": 6130,
      "gloire": 6131,
      "rer": 6132,
      "##lières": 6133,
      "##95": 6134,
      "interro": 6135,
      "##ulaire": 6136,
      "médecins": 6137,
      "4e": 6138,
      "##vu": 6139,
      "Barb": 6140,
      "passion": 6141,
      "arra": 6142,
      "davantage": 6143,
      "perte": 6144,
      "réception": 6145,
      "prud": 6146,
      "assisté": 6147,
      "appartenant": 6148,
      "insist": 6149,
      "visiter": 6150,
      "terminé": 6151,
      "##oient": 6152,
      "paraître": 6153,
      "ministérie": 6154,
      "##enn": 6155,
      "##AY": 6156,
      "messe": 6157,
      "messieurs": 6158,
      "108": 6159,
      "##ATS": 6160,
      "rejet": 6161,
      "épreuves": 6162,
      "##UT": 6163,
      "revient": 6164,
      "accompagné": 6165,
      "contenant": 6166,
      "Joh": 6167,
      "pét": 6168,
      "effets": 6169,
      "différentes": 6170,
      "absence": 6171,
      "gross": 6172,
      "obligé": 6173,
      "We": 6174,
      "##ologie": 6175,
      "pond": 6176,
      "##hode": 6177,
      "##ôn": 6178,
      "neur": 6179,
      "##éma": 6180,
      "assistance": 6181,
      "jourd": 6182,
      "croix": 6183,
      "##gre": 6184,
      "##entement": 6185,
      "Met": 6186,
      "prodi": 6187,
      "rédac": 6188,
      "discip": 6189,
      "rappeler": 6190,
      "tons": 6191,
      "beauté": 6192,
      "Toulouse": 6193,
      "reven": 6194,
      "acquis": 6195,
      "tiss": 6196,
      "civ": 6197,
      "cheveux": 6198,
      "##chy": 6199,
      "comprom": 6200,
      "Moul": 6201,
      "Flo": 6202,
      "fini": 6203,
      "sep": 6204,
      "constru": 6205,
      "jau": 6206,
      "décédé": 6207,
      "inspecteur": 6208,
      "Eh": 6209,
      "Votre": 6210,
      "renvers": 6211,
      "individus": 6212,
      "dram": 6213,
      "##dez": 6214,
      "causes": 6215,
      "Fab": 6216,
      "##IST": 6217,
      "##tiens": 6218,
      "explos": 6219,
      "soule": 6220,
      "déposé": 6221,
      "obst": 6222,
      "récomp": 6223,
      "##ionnat": 6224,
      "##ageux": 6225,
      "cultiva": 6226,
      "##ORD": 6227,
      "trouva": 6228,
      "mairie": 6229,
      "##ortun": 6230,
      "##ultan": 6231,
      "contribu": 6232,
      "Cle": 6233,
      "##ographie": 6234,
      "sim": 6235,
      "##blé": 6236,
      "fantaisie": 6237,
      "différents": 6238,
      "##ibus": 6239,
      "frappé": 6240,
      "arbit": 6241,
      "privil": 6242,
      "directement": 6243,
      "favorable": 6244,
      "réaliser": 6245,
      "tenait": 6246,
      "##armes": 6247,
      "##tern": 6248,
      "trésor": 6249,
      "##tième": 6250,
      "critique": 6251,
      "##arre": 6252,
      "Jeunes": 6253,
      "Gra": 6254,
      "occuper": 6255,
      "tation": 6256,
      "redout": 6257,
      "cuisine": 6258,
      "examiner": 6259,
      "##pn": 6260,
      "constater": 6261,
      "##ash": 6262,
      "citoyen": 6263,
      "Mlles": 6264,
      "qual": 6265,
      "##pent": 6266,
      "entret": 6267,
      "Jeudi": 6268,
      "cartes": 6269,
      "amendement": 6270,
      "##ranée": 6271,
      "io": 6272,
      "tendant": 6273,
      "éléments": 6274,
      "##rième": 6275,
      "philos": 6276,
      "égale": 6277,
      "collègues": 6278,
      "Quatre": 6279,
      "Land": 6280,
      "##lll": 6281,
      "devient": 6282,
      "##AND": 6283,
      "baiss": 6284,
      "wag": 6285,
      "Alsace": 6286,
      "sè": 6287,
      "Roger": 6288,
      "pertes": 6289,
      "##archie": 6290,
      "##bal": 6291,
      "douleur": 6292,
      "##anmoins": 6293,
      "tomber": 6294,
      "auxquels": 6295,
      "espé": 6296,
      "##ntemps": 6297,
      "##ID": 6298,
      "##ôtre": 6299,
      "durant": 6300,
      "négli": 6301,
      "récit": 6302,
      "PETI": 6303,
      "prime": 6304,
      "battu": 6305,
      "organisé": 6306,
      "cler": 6307,
      "chambres": 6308,
      "Gazette": 6309,
      "tombé": 6310,
      "adversaires": 6311,
      "meilleure": 6312,
      "multip": 6313,
      "rétab": 6314,
      "FRANÇAIS": 6315,
      "devrait": 6316,
      "évêque": 6317,
      "épau": 6318,
      "délégué": 6319,
      "##cies": 6320,
      "véri": 6321,
      "livrer": 6322,
      "##acles": 6323,
      "cadavre": 6324,
      "Vente": 6325,
      "tie": 6326,
      "exige": 6327,
      "obé": 6328,
      "dor": 6329,
      "Long": 6330,
      "##URES": 6331,
      "impri": 6332,
      "Vend": 6333,
      "armées": 6334,
      "ANN": 6335,
      "couleur": 6336,
      "intervention": 6337,
      "agir": 6338,
      "charm": 6339,
      "adh": 6340,
      "107": 6341,
      "##elin": 6342,
      "hasard": 6343,
      "ras": 6344,
      "##js": 6345,
      "##érien": 6346,
      "composé": 6347,
      "Prusse": 6348,
      "fat": 6349,
      "##chou": 6350,
      "annonc": 6351,
      "parfaite": 6352,
      "resté": 6353,
      "sauver": 6354,
      "##acie": 6355,
      "lent": 6356,
      "##lr": 6357,
      "##chées": 6358,
      "débar": 6359,
      "malades": 6360,
      "Pra": 6361,
      "interr": 6362,
      "cessé": 6363,
      "##èrement": 6364,
      "Por": 6365,
      "ignor": 6366,
      "##acte": 6367,
      "reçues": 6368,
      "##ffe": 6369,
      "##ELLE": 6370,
      "Constantin": 6371,
      "allé": 6372,
      "agréable": 6373,
      "Napoléon": 6374,
      "##esses": 6375,
      "Pays": 6376,
      "Syndic": 6377,
      "nent": 6378,
      "voies": 6379,
      "##quin": 6380,
      "correction": 6381,
      "évent": 6382,
      "solid": 6383,
      "témoin": 6384,
      "##licité": 6385,
      "##conque": 6386,
      "Salon": 6387,
      "##idence": 6388,
      "milieux": 6389,
      "paci": 6390,
      "voisins": 6391,
      "##IM": 6392,
      "propositions": 6393,
      "amus": 6394,
      "##ting": 6395,
      "vendus": 6396,
      "ltalie": 6397,
      "Inter": 6398,
      "tiré": 6399,
      "préte": 6400,
      "riches": 6401,
      "lité": 6402,
      "##RIE": 6403,
      "teint": 6404,
      "##igner": 6405,
      "##tn": 6406,
      "tendre": 6407,
      "Gi": 6408,
      "TH": 6409,
      "ran": 6410,
      "chiffres": 6411,
      "meurt": 6412,
      "stu": 6413,
      "vues": 6414,
      "pluie": 6415,
      "export": 6416,
      "garder": 6417,
      "Elysées": 6418,
      "##oté": 6419,
      "Poin": 6420,
      "américain": 6421,
      "toire": 6422,
      "litt": 6423,
      "##quées": 6424,
      "successi": 6425,
      "attrib": 6426,
      "tendance": 6427,
      "##den": 6428,
      "acquit": 6429,
      "##och": 6430,
      "idé": 6431,
      "aveo": 6432,
      "Ve": 6433,
      "énergique": 6434,
      "sions": 6435,
      "Cô": 6436,
      "beur": 6437,
      "##range": 6438,
      "due": 6439,
      "geste": 6440,
      "départements": 6441,
      "##ATE": 6442,
      "invent": 6443,
      "entreprise": 6444,
      "nés": 6445,
      "canal": 6446,
      "particulière": 6447,
      "SAINT": 6448,
      "Louise": 6449,
      "##raire": 6450,
      "07": 6451,
      "parquet": 6452,
      "##agu": 6453,
      "conserver": 6454,
      "résolution": 6455,
      "usines": 6456,
      "rn": 6457,
      "##ison": 6458,
      "reprises": 6459,
      "Siè": 6460,
      "##rances": 6461,
      "Turquie": 6462,
      "affai": 6463,
      "SUR": 6464,
      "possède": 6465,
      "Aj": 6466,
      "remont": 6467,
      "Amb": 6468,
      "probablement": 6469,
      "agricole": 6470,
      "occupé": 6471,
      "iu": 6472,
      "##lix": 6473,
      "maxim": 6474,
      "##manité": 6475,
      "##ativement": 6476,
      "tn": 6477,
      "SP": 6478,
      "fournir": 6479,
      "##ernes": 6480,
      "ingénieur": 6481,
      "##lée": 6482,
      "magistrat": 6483,
      "chi": 6484,
      "Aub": 6485,
      "maritime": 6486,
      "Empire": 6487,
      "adressée": 6488,
      "çais": 6489,
      "##assés": 6490,
      "signale": 6491,
      "nir": 6492,
      "resse": 6493,
      "Messieurs": 6494,
      "source": 6495,
      "MAISON": 6496,
      "##oyen": 6497,
      "donna": 6498,
      "Four": 6499,
      "portait": 6500,
      "développement": 6501,
      "gris": 6502,
      "##oue": 6503,
      "##deau": 6504,
      "1910": 6505,
      "cra": 6506,
      "##TIONS": 6507,
      "##diens": 6508,
      "Att": 6509,
      "##hier": 6510,
      "nière": 6511,
      "parfait": 6512,
      "ps": 6513,
      "voulez": 6514,
      "disparu": 6515,
      "##gner": 6516,
      "transporté": 6517,
      "##othèque": 6518,
      "doul": 6519,
      "##85": 6520,
      "##olet": 6521,
      "##idé": 6522,
      "telles": 6523,
      "##ctu": 6524,
      "Nouvelle": 6525,
      "##ett": 6526,
      "repar": 6527,
      "conflit": 6528,
      "sérieuse": 6529,
      "phras": 6530,
      "##alistes": 6531,
      "##titue": 6532,
      "##ïe": 6533,
      "ÉT": 6534,
      "élec": 6535,
      "Radi": 6536,
      "##unt": 6537,
      "accusé": 6538,
      "Manche": 6539,
      "##reau": 6540,
      "arrivés": 6541,
      "devenir": 6542,
      "Stade": 6543,
      "##ENCE": 6544,
      "remettre": 6545,
      "jui": 6546,
      "ron": 6547,
      "garnis": 6548,
      "retirer": 6549,
      "tuer": 6550,
      "trouvaient": 6551,
      "comptes": 6552,
      "répand": 6553,
      "propres": 6554,
      "Pologne": 6555,
      "sympathie": 6556,
      "établissements": 6557,
      "##armerie": 6558,
      "syn": 6559,
      "Der": 6560,
      "##otes": 6561,
      "dépê": 6562,
      "époux": 6563,
      "minuit": 6564,
      "##mnibus": 6565,
      "écras": 6566,
      "autrefois": 6567,
      "centrale": 6568,
      "Gaston": 6569,
      "offi": 6570,
      "mourir": 6571,
      "duquel": 6572,
      "bouche": 6573,
      "Py": 6574,
      "distribution": 6575,
      "religieux": 6576,
      "intéressant": 6577,
      "##iie": 6578,
      "arriv": 6579,
      "protection": 6580,
      "garanties": 6581,
      "nor": 6582,
      "vr": 6583,
      "##BE": 6584,
      "Commerce": 6585,
      "héro": 6586,
      "échange": 6587,
      "##BS": 6588,
      "abus": 6589,
      "envis": 6590,
      "assises": 6591,
      "Ker": 6592,
      "numéros": 6593,
      "Normand": 6594,
      "dément": 6595,
      "complé": 6596,
      "It": 6597,
      "monn": 6598,
      "##ave": 6599,
      "caiss": 6600,
      "supr": 6601,
      "##lien": 6602,
      "Chemins": 6603,
      "passant": 6604,
      "réduction": 6605,
      "fan": 6606,
      "grosse": 6607,
      "importantes": 6608,
      "##nez": 6609,
      "devenu": 6610,
      "suppos": 6611,
      "unité": 6612,
      "connais": 6613,
      "##aj": 6614,
      "insur": 6615,
      "##dite": 6616,
      "flotte": 6617,
      "Briand": 6618,
      "républicaine": 6619,
      "noble": 6620,
      "##aigne": 6621,
      "refusé": 6622,
      "##enues": 6623,
      "entretien": 6624,
      "reçus": 6625,
      "##dam": 6626,
      "##éry": 6627,
      "envah": 6628,
      "document": 6629,
      "renouvel": 6630,
      "cortège": 6631,
      "##oite": 6632,
      "##OIR": 6633,
      "disent": 6634,
      "avantages": 6635,
      "situé": 6636,
      "incl": 6637,
      "Thomas": 6638,
      "veaux": 6639,
      "ident": 6640,
      "hôte": 6641,
      "bénéfices": 6642,
      "retrait": 6643,
      "grade": 6644,
      "rembours": 6645,
      "Figaro": 6646,
      "viol": 6647,
      "drapeau": 6648,
      "her": 6649,
      "##lies": 6650,
      "écar": 6651,
      "##ycle": 6652,
      "Ll": 6653,
      "incon": 6654,
      "Voir": 6655,
      "précis": 6656,
      "exploitation": 6657,
      "rentrer": 6658,
      "effor": 6659,
      "pierre": 6660,
      "ip": 6661,
      "Né": 6662,
      "reçoit": 6663,
      "##rag": 6664,
      "##chard": 6665,
      "poitrine": 6666,
      "George": 6667,
      "##olid": 6668,
      "Dal": 6669,
      "##ENS": 6670,
      "signe": 6671,
      "##êtres": 6672,
      "retrouver": 6673,
      "température": 6674,
      "##die": 6675,
      "bourgeois": 6676,
      "##onnée": 6677,
      "Arri": 6678,
      "piano": 6679,
      "déclara": 6680,
      "##prises": 6681,
      "spir": 6682,
      "##van": 6683,
      "perpé": 6684,
      "vœu": 6685,
      "ordinaires": 6686,
      "##oureuse": 6687,
      "voter": 6688,
      "Mas": 6689,
      "essai": 6690,
      "##viend": 6691,
      "Château": 6692,
      "céd": 6693,
      "##urie": 6694,
      "##bie": 6695,
      "ste": 6696,
      "Compt": 6697,
      "##acon": 6698,
      "collec": 6699,
      "impôts": 6700,
      "produire": 6701,
      "Sui": 6702,
      "rentrée": 6703,
      "propagande": 6704,
      "internationale": 6705,
      "convention": 6706,
      "##ÉN": 6707,
      "##itaires": 6708,
      "franch": 6709,
      "Péters": 6710,
      "quatrième": 6711,
      "##fices": 6712,
      "naturel": 6713,
      "Anne": 6714,
      "ast": 6715,
      "1894": 6716,
      "AUX": 6717,
      "Pers": 6718,
      "##rn": 6719,
      "fraî": 6720,
      "regrett": 6721,
      "##zon": 6722,
      "commandement": 6723,
      "FRANCE": 6724,
      "##bot": 6725,
      "##nelles": 6726,
      "Env": 6727,
      "inex": 6728,
      "fixe": 6729,
      "traités": 6730,
      "éducation": 6731,
      "##aris": 6732,
      "chancelier": 6733,
      "fum": 6734,
      "##lia": 6735,
      "##îe": 6736,
      "pareille": 6737,
      "origin": 6738,
      "##ièvre": 6739,
      "##itée": 6740,
      "indemn": 6741,
      "rive": 6742,
      "occupe": 6743,
      "sujets": 6744,
      "MAT": 6745,
      "##tifier": 6746,
      "Père": 6747,
      "religion": 6748,
      "attribu": 6749,
      "regret": 6750,
      "SS": 6751,
      "repré": 6752,
      "abat": 6753,
      "##sa": 6754,
      "##rien": 6755,
      "religieuse": 6756,
      "Gabrie": 6757,
      "citer": 6758,
      "##ongrois": 6759,
      "Arts": 6760,
      "énorme": 6761,
      "croyons": 6762,
      "##ottes": 6763,
      "avan": 6764,
      "réaction": 6765,
      "exactement": 6766,
      "##ng": 6767,
      "grav": 6768,
      "étrangère": 6769,
      "rare": 6770,
      "##tée": 6771,
      "tentative": 6772,
      "actif": 6773,
      "##cho": 6774,
      "Cler": 6775,
      "Pen": 6776,
      "##oiselle": 6777,
      "##ymn": 6778,
      "dite": 6779,
      "sér": 6780,
      "Mun": 6781,
      "allant": 6782,
      "##fred": 6783,
      "amort": 6784,
      "brigade": 6785,
      "Auguste": 6786,
      "poète": 6787,
      "Chaque": 6788,
      "conclu": 6789,
      "expédition": 6790,
      "réput": 6791,
      "Grèce": 6792,
      "aviation": 6793,
      "proportion": 6794,
      "savait": 6795,
      "active": 6796,
      "##cés": 6797,
      "contient": 6798,
      "TRA": 6799,
      "joy": 6800,
      "Noël": 6801,
      "vicomte": 6802,
      "apporter": 6803,
      "aa": 6804,
      "devons": 6805,
      "Sont": 6806,
      "FR": 6807,
      "##lieue": 6808,
      "##eloppe": 6809,
      "##ancy": 6810,
      "1895": 6811,
      "bateau": 6812,
      "feront": 6813,
      "lia": 6814,
      "##manie": 6815,
      "manger": 6816,
      "recherches": 6817,
      "prosp": 6818,
      "positions": 6819,
      "##ala": 6820,
      "170": 6821,
      "##isses": 6822,
      "cous": 6823,
      "supplément": 6824,
      "Cpt": 6825,
      "##verse": 6826,
      "Rousse": 6827,
      "éval": 6828,
      "chans": 6829,
      "manifes": 6830,
      "lr": 6831,
      "devaient": 6832,
      "méthode": 6833,
      "tram": 6834,
      "juger": 6835,
      "coute": 6836,
      "relative": 6837,
      "##maire": 6838,
      "Marguer": 6839,
      "divid": 6840,
      "éte": 6841,
      "##ja": 6842,
      "Séb": 6843,
      "##89": 6844,
      "longues": 6845,
      "Honoré": 6846,
      "signé": 6847,
      "Agence": 6848,
      "parcours": 6849,
      "signif": 6850,
      "reprend": 6851,
      "marquise": 6852,
      "JOURN": 6853,
      "Vau": 6854,
      "Jours": 6855,
      "triomphe": 6856,
      "Blanc": 6857,
      "applaudi": 6858,
      "##INES": 6859,
      "##astro": 6860,
      "consent": 6861,
      "Poiss": 6862,
      "mena": 6863,
      "##pré": 6864,
      "##ésie": 6865,
      "CE": 6866,
      "aî": 6867,
      "machine": 6868,
      "SA": 6869,
      "hommage": 6870,
      "BOU": 6871,
      "plainte": 6872,
      "##iciens": 6873,
      "Gas": 6874,
      "esprits": 6875,
      "Salnt": 6876,
      "savez": 6877,
      "échang": 6878,
      "attaques": 6879,
      "##ye": 6880,
      "définitive": 6881,
      "espèce": 6882,
      "Nicol": 6883,
      "relatif": 6884,
      "Bes": 6885,
      "##oï": 6886,
      "Jamais": 6887,
      "spécul": 6888,
      "##mite": 6889,
      "##ustriel": 6890,
      "royale": 6891,
      "masse": 6892,
      "absolue": 6893,
      "surprise": 6894,
      "tru": 6895,
      "##taire": 6896,
      "oublier": 6897,
      "##ories": 6898,
      "NE": 6899,
      "repas": 6900,
      "crédits": 6901,
      "Same": 6902,
      "##tants": 6903,
      "chargée": 6904,
      "Wal": 6905,
      "affirme": 6906,
      "##bout": 6907,
      "##oly": 6908,
      "financière": 6909,
      "américaine": 6910,
      "communication": 6911,
      "Fontaine": 6912,
      "réunir": 6913,
      "DANS": 6914,
      "III": 6915,
      "reconnaissance": 6916,
      "##lantique": 6917,
      "japon": 6918,
      "##15": 6919,
      "##GER": 6920,
      "mier": 6921,
      "##éni": 6922,
      "GU": 6923,
      "tradition": 6924,
      "##étaire": 6925,
      "restent": 6926,
      "PH": 6927,
      "jo": 6928,
      "ic": 6929,
      "##ick": 6930,
      "arrestation": 6931,
      "supé": 6932,
      "minim": 6933,
      "consomm": 6934,
      "##jt": 6935,
      "##rl": 6936,
      "milliers": 6937,
      "Rapp": 6938,
      "VA": 6939,
      "nommés": 6940,
      "scand": 6941,
      "déjeuner": 6942,
      "Ho": 6943,
      "disponible": 6944,
      "bli": 6945,
      "pati": 6946,
      "italienne": 6947,
      "Sai": 6948,
      "former": 6949,
      "Pass": 6950,
      "##IÈ": 6951,
      "1870": 6952,
      "Méditerranée": 6953,
      "possession": 6954,
      "nettement": 6955,
      "Let": 6956,
      "taxe": 6957,
      "ferait": 6958,
      "##ISE": 6959,
      "Lang": 6960,
      "##ensive": 6961,
      "publiques": 6962,
      "cadre": 6963,
      "assis": 6964,
      "##yl": 6965,
      "spécialement": 6966,
      "craint": 6967,
      "Ligue": 6968,
      "AG": 6969,
      "##ament": 6970,
      "Franco": 6971,
      "##ranger": 6972,
      "1913": 6973,
      "rass": 6974,
      "estomac": 6975,
      "liquidation": 6976,
      "##vistes": 6977,
      "ang": 6978,
      "remarquable": 6979,
      "Chez": 6980,
      "ji": 6981,
      "IT": 6982,
      "##outes": 6983,
      "miss": 6984,
      "cen": 6985,
      "##mt": 6986,
      "dette": 6987,
      "allemandes": 6988,
      "habitude": 6989,
      "Alfred": 6990,
      "##rette": 6991,
      "bres": 6992,
      "##vier": 6993,
      "##ataires": 6994,
      "pier": 6995,
      "##éric": 6996,
      "Lan": 6997,
      "Calais": 6998,
      "habile": 6999,
      "Lazare": 7000,
      "cass": 7001,
      "offrir": 7002,
      "lant": 7003,
      "explique": 7004,
      "BANQUE": 7005,
      "vaill": 7006,
      "##35": 7007,
      "égal": 7008,
      "soud": 7009,
      "##âts": 7010,
      "accent": 7011,
      "Lorsque": 7012,
      "menace": 7013,
      "conséquences": 7014,
      "bataillon": 7015,
      "Dor": 7016,
      "ouvre": 7017,
      "##inent": 7018,
      "exclusi": 7019,
      "parlementaire": 7020,
      "faubourg": 7021,
      "robe": 7022,
      "courte": 7023,
      "reb": 7024,
      "espérer": 7025,
      "Richard": 7026,
      "Sir": 7027,
      "paiement": 7028,
      "défi": 7029,
      "##por": 7030,
      "donnait": 7031,
      "##ovie": 7032,
      "nées": 7033,
      "Rose": 7034,
      "##armacie": 7035,
      "Bis": 7036,
      "##ILLET": 7037,
      "##usta": 7038,
      "##mise": 7039,
      "néral": 7040,
      "excellente": 7041,
      "##igneur": 7042,
      "placer": 7043,
      "Moscou": 7044,
      "##œux": 7045,
      "chère": 7046,
      "##çants": 7047,
      "Vit": 7048,
      "crimine": 7049,
      "sourire": 7050,
      "Ham": 7051,
      "libéral": 7052,
      "motifs": 7053,
      "règne": 7054,
      "Bulg": 7055,
      "dut": 7056,
      "Chambres": 7057,
      "RA": 7058,
      "Duc": 7059,
      "vigueur": 7060,
      "Poi": 7061,
      "112": 7062,
      "unanimité": 7063,
      "médecine": 7064,
      "expliquer": 7065,
      "gendarmerie": 7066,
      "ombre": 7067,
      "pareil": 7068,
      "joué": 7069,
      "dimanches": 7070,
      "alloc": 7071,
      "Parti": 7072,
      "Sl": 7073,
      "##etta": 7074,
      "suppression": 7075,
      "rentes": 7076,
      "causé": 7077,
      "issue": 7078,
      "rente": 7079,
      "préju": 7080,
      "##sibles": 7081,
      "ct": 7082,
      "##45": 7083,
      "marin": 7084,
      "terres": 7085,
      "06": 7086,
      "nov": 7087,
      "##iit": 7088,
      "##agers": 7089,
      "appris": 7090,
      "##iz": 7091,
      "unif": 7092,
      "escal": 7093,
      "Ep": 7094,
      "doll": 7095,
      "fier": 7096,
      "débats": 7097,
      "1921": 7098,
      "##queur": 7099,
      "procéder": 7100,
      "##vage": 7101,
      "type": 7102,
      "signature": 7103,
      "Ml": 7104,
      "congé": 7105,
      "jeter": 7106,
      "baronne": 7107,
      "lais": 7108,
      "##rr": 7109,
      "style": 7110,
      "109": 7111,
      "##ueuse": 7112,
      "##ANTS": 7113,
      "nistre": 7114,
      "fuite": 7115,
      "Air": 7116,
      "entente": 7117,
      "animaux": 7118,
      "insuff": 7119,
      "carrière": 7120,
      "##vié": 7121,
      "Prince": 7122,
      "bil": 7123,
      "violence": 7124,
      "gai": 7125,
      "135": 7126,
      "##LÉ": 7127,
      "##vie": 7128,
      "signaler": 7129,
      "##fus": 7130,
      "navig": 7131,
      "duchesse": 7132,
      "fixée": 7133,
      "forts": 7134,
      "communiqué": 7135,
      "##uts": 7136,
      "raff": 7137,
      "Drou": 7138,
      "sh": 7139,
      "##ada": 7140,
      "pair": 7141,
      "##oisse": 7142,
      "##ITE": 7143,
      "1880": 7144,
      "quoti": 7145,
      "Esc": 7146,
      "Feu": 7147,
      "séances": 7148,
      "rares": 7149,
      "appartient": 7150,
      "jouissance": 7151,
      "von": 7152,
      "##deurs": 7153,
      "##ali": 7154,
      "Lundi": 7155,
      "##illons": 7156,
      "déd": 7157,
      "rte": 7158,
      "facil": 7159,
      "produis": 7160,
      "qué": 7161,
      "domaine": 7162,
      "international": 7163,
      "balle": 7164,
      "##ope": 7165,
      "##oué": 7166,
      "grièvement": 7167,
      "appareils": 7168,
      "182": 7169,
      "support": 7170,
      "espagnol": 7171,
      "Christ": 7172,
      "BOUR": 7173,
      "prenant": 7174,
      "arrêtés": 7175,
      "ouvrages": 7176,
      "##ago": 7177,
      "bibli": 7178,
      "données": 7179,
      "principales": 7180,
      "manœuvres": 7181,
      "posé": 7182,
      "composée": 7183,
      "nomin": 7184,
      "apprend": 7185,
      "amp": 7186,
      "contemp": 7187,
      "##caré": 7188,
      "renfer": 7189,
      "Rhône": 7190,
      "sauve": 7191,
      "spiritu": 7192,
      "Déj": 7193,
      "tom": 7194,
      "specta": 7195,
      "##fais": 7196,
      "##mbourg": 7197,
      "##mence": 7198,
      "##AUL": 7199,
      "##ignon": 7200,
      "CHE": 7201,
      "organisée": 7202,
      "fleur": 7203,
      "grec": 7204,
      "##ny": 7205,
      "Dépôt": 7206,
      "Mans": 7207,
      "Hongrie": 7208,
      "Dés": 7209,
      "désord": 7210,
      "propriétaires": 7211,
      "publier": 7212,
      "##onge": 7213,
      "aud": 7214,
      "clientèle": 7215,
      "moral": 7216,
      "bail": 7217,
      "muni": 7218,
      "##ERN": 7219,
      "##fie": 7220,
      "joue": 7221,
      "tan": 7222,
      "formation": 7223,
      "##ATI": 7224,
      "EL": 7225,
      "perfection": 7226,
      "Ernes": 7227,
      "Fem": 7228,
      "heureusement": 7229,
      "consom": 7230,
      "télégramme": 7231,
      "##cieux": 7232,
      "taine": 7233,
      "exag": 7234,
      "race": 7235,
      "Bat": 7236,
      "Caen": 7237,
      "Servi": 7238,
      "définitivement": 7239,
      "modèle": 7240,
      "118": 7241,
      "Lorraine": 7242,
      "camarade": 7243,
      "vendu": 7244,
      "##orge": 7245,
      "##aisons": 7246,
      "magasin": 7247,
      "éta": 7248,
      "175": 7249,
      "peintre": 7250,
      "calcul": 7251,
      "##leurs": 7252,
      "appeler": 7253,
      "voyant": 7254,
      "Caisse": 7255,
      "OB": 7256,
      "ls": 7257,
      "dites": 7258,
      "acclam": 7259,
      "radicaux": 7260,
      "prépare": 7261,
      "poser": 7262,
      "auxquelles": 7263,
      "##Ui": 7264,
      "lî": 7265,
      "entré": 7266,
      "1909": 7267,
      "mises": 7268,
      "infir": 7269,
      "Quoi": 7270,
      "COU": 7271,
      "##istance": 7272,
      "naturellement": 7273,
      "COL": 7274,
      "gagne": 7275,
      "220": 7276,
      "##AD": 7277,
      "Laurent": 7278,
      "pavillon": 7279,
      "Gré": 7280,
      "travailler": 7281,
      "combin": 7282,
      "blancs": 7283,
      "Jeune": 7284,
      "adju": 7285,
      "Fern": 7286,
      "Wash": 7287,
      "documents": 7288,
      "08": 7289,
      "bains": 7290,
      "pt": 7291,
      "##ONN": 7292,
      "atteindre": 7293,
      "##allée": 7294,
      "poule": 7295,
      "PRE": 7296,
      "##wn": 7297,
      "recherche": 7298,
      "précieux": 7299,
      "##pell": 7300,
      "résulte": 7301,
      "forcé": 7302,
      "financier": 7303,
      "##tific": 7304,
      "conduire": 7305,
      "Radio": 7306,
      "Marché": 7307,
      "Pape": 7308,
      "Italien": 7309,
      "accepté": 7310,
      "##veil": 7311,
      "prétexte": 7312,
      "parcour": 7313,
      "connue": 7314,
      "Pap": 7315,
      "##we": 7316,
      "##urée": 7317,
      "##ims": 7318,
      "publication": 7319,
      "ouvrière": 7320,
      "bij": 7321,
      "vœux": 7322,
      "ard": 7323,
      "économie": 7324,
      "Trib": 7325,
      "surpris": 7326,
      "sée": 7327,
      "Lit": 7328,
      "Dern": 7329,
      "iS": 7330,
      "##ling": 7331,
      "##unes": 7332,
      "cycl": 7333,
      "Rivoli": 7334,
      "AI": 7335,
      "Dam": 7336,
      "Nancy": 7337,
      "intent": 7338,
      "Félix": 7339,
      "inutile": 7340,
      "gendarmes": 7341,
      "cimetière": 7342,
      "Action": 7343,
      "formé": 7344,
      "Rand": 7345,
      "répu": 7346,
      "sab": 7347,
      "##rières": 7348,
      "association": 7349,
      "##AIRES": 7350,
      "##iés": 7351,
      "##adier": 7352,
      "##AZ": 7353,
      "##olles": 7354,
      "précau": 7355,
      "hectares": 7356,
      "1889": 7357,
      "déclarer": 7358,
      "Tél": 7359,
      "jeté": 7360,
      "##uir": 7361,
      "Baud": 7362,
      "commencement": 7363,
      "loge": 7364,
      "CHAM": 7365,
      "##tré": 7366,
      "anti": 7367,
      "velle": 7368,
      "conven": 7369,
      "Meu": 7370,
      "harm": 7371,
      "sinon": 7372,
      "langage": 7373,
      "##lis": 7374,
      "ressort": 7375,
      "importants": 7376,
      "Dup": 7377,
      "balles": 7378,
      "##tile": 7379,
      "##ws": 7380,
      "taires": 7381,
      "plaint": 7382,
      "brevet": 7383,
      "Jul": 7384,
      "TER": 7385,
      "Mel": 7386,
      "##not": 7387,
      "terminée": 7388,
      "750": 7389,
      "Reine": 7390,
      "sonne": 7391,
      "meubles": 7392,
      "Rés": 7393,
      "##tera": 7394,
      "prêts": 7395,
      "deman": 7396,
      "représente": 7397,
      "fusil": 7398,
      "##alie": 7399,
      "république": 7400,
      "Nouveau": 7401,
      "Samedi": 7402,
      "Lag": 7403,
      "ira": 7404,
      "argu": 7405,
      "amené": 7406,
      "invités": 7407,
      "Marguerite": 7408,
      "dévouement": 7409,
      "maintien": 7410,
      "##rables": 7411,
      "réfug": 7412,
      "##rammes": 7413,
      "Hugo": 7414,
      "correspondance": 7415,
      "Poincaré": 7416,
      "##xes": 7417,
      "âgée": 7418,
      "Veu": 7419,
      "cau": 7420,
      "##eté": 7421,
      "Yv": 7422,
      "conséquent": 7423,
      "Constitution": 7424,
      "champs": 7425,
      "lac": 7426,
      "##acs": 7427,
      "##neau": 7428,
      "collabor": 7429,
      "malheur": 7430,
      "1920": 7431,
      "feuilles": 7432,
      "record": 7433,
      "attaché": 7434,
      "mètre": 7435,
      "##rera": 7436,
      "sance": 7437,
      "##arent": 7438,
      "pension": 7439,
      "joint": 7440,
      "##hs": 7441,
      "fabri": 7442,
      "Elect": 7443,
      "##iette": 7444,
      "magasins": 7445,
      "poursuit": 7446,
      "subir": 7447,
      "Leur": 7448,
      "Vive": 7449,
      "##tez": 7450,
      "Russe": 7451,
      "ion": 7452,
      "##anche": 7453,
      "blique": 7454,
      "Suz": 7455,
      "##ditions": 7456,
      "##issante": 7457,
      "DEMAN": 7458,
      "annuelle": 7459,
      "firent": 7460,
      "étrange": 7461,
      "sciences": 7462,
      "March": 7463,
      "salons": 7464,
      "termine": 7465,
      "souverain": 7466,
      "vaisseau": 7467,
      "vê": 7468,
      "fermes": 7469,
      "maximum": 7470,
      "avion": 7471,
      "mond": 7472,
      "ao": 7473,
      "##gué": 7474,
      "faudra": 7475,
      "##gère": 7476,
      "1905": 7477,
      "réunions": 7478,
      "côtes": 7479,
      "tance": 7480,
      "##hes": 7481,
      "Var": 7482,
      "##oges": 7483,
      "Améric": 7484,
      "éti": 7485,
      "##ataire": 7486,
      "Jardin": 7487,
      "biens": 7488,
      "promet": 7489,
      "cavalerie": 7490,
      "TOU": 7491,
      "line": 7492,
      "bag": 7493,
      "acheter": 7494,
      "constitue": 7495,
      "##jr": 7496,
      "traiter": 7497,
      "Rév": 7498,
      "lt": 7499,
      "dic": 7500,
      "viens": 7501,
      "Institut": 7502,
      "banlieue": 7503,
      "recul": 7504,
      "1896": 7505,
      "déro": 7506,
      "If": 7507,
      "prête": 7508,
      "syndicats": 7509,
      "fameux": 7510,
      "sages": 7511,
      "libres": 7512,
      "##UIT": 7513,
      "circulaire": 7514,
      "alla": 7515,
      "reconnaiss": 7516,
      "télégraphie": 7517,
      "Courant": 7518,
      "monter": 7519,
      "médaille": 7520,
      "passait": 7521,
      "indispensable": 7522,
      "##cent": 7523,
      "Réun": 7524,
      "scient": 7525,
      "bateaux": 7526,
      "Temps": 7527,
      "obligation": 7528,
      "##ressi": 7529,
      "RUE": 7530,
      "Fal": 7531,
      "assurance": 7532,
      "attendu": 7533,
      "fâ": 7534,
      "éclair": 7535,
      "##iï": 7536,
      "Naz": 7537,
      "bâtiment": 7538,
      "engagements": 7539,
      "gares": 7540,
      "précé": 7541,
      "09": 7542,
      "dessin": 7543,
      "formes": 7544,
      "Quelle": 7545,
      "##ways": 7546,
      "cham": 7547,
      "4°": 7548,
      "Sor": 7549,
      "Cit": 7550,
      "##osé": 7551,
      "##érard": 7552,
      "Toutefois": 7553,
      "buts": 7554,
      "évac": 7555,
      "##cié": 7556,
      "chargés": 7557,
      "conj": 7558,
      "quarts": 7559,
      "paque": 7560,
      "quoique": 7561,
      "immédiate": 7562,
      "incomp": 7563,
      "préparer": 7564,
      "polon": 7565,
      "reprit": 7566,
      "amitié": 7567,
      "surv": 7568,
      "perpétu": 7569,
      "116": 7570,
      "Ev": 7571,
      "1875": 7572,
      "patriot": 7573,
      "ignore": 7574,
      "réseau": 7575,
      "##uies": 7576,
      "séd": 7577,
      "jadis": 7578,
      "généralement": 7579,
      "Peut": 7580,
      "coupable": 7581,
      "champion": 7582,
      "##feuille": 7583,
      "remport": 7584,
      "basse": 7585,
      "##pon": 7586,
      "coop": 7587,
      "Autrich": 7588,
      "fabrication": 7589,
      "glor": 7590,
      "murs": 7591,
      "##ties": 7592,
      "1891": 7593,
      "chevalier": 7594,
      "chaud": 7595,
      "##iteurs": 7596,
      "Cie": 7597,
      "Lomb": 7598,
      "##nay": 7599,
      "##the": 7600,
      "splen": 7601,
      "bic": 7602,
      "##trait": 7603,
      "##irent": 7604,
      "##onyme": 7605,
      "abst": 7606,
      "précédent": 7607,
      "Rhin": 7608,
      "##cli": 7609,
      "maîtresse": 7610,
      "métal": 7611,
      "##LI": 7612,
      "gardes": 7613,
      "Lim": 7614,
      "rose": 7615,
      "archev": 7616,
      "##UC": 7617,
      "1871": 7618,
      "##iction": 7619,
      "tenté": 7620,
      "tis": 7621,
      "##olland": 7622,
      "1932": 7623,
      "chô": 7624,
      "listes": 7625,
      "Cheval": 7626,
      "Guerre": 7627,
      "autrement": 7628,
      "clé": 7629,
      "##fique": 7630,
      "MI": 7631,
      "Boule": 7632,
      "##arn": 7633,
      "Ernest": 7634,
      "##fè": 7635,
      "constaté": 7636,
      "##mpe": 7637,
      "enregist": 7638,
      "and": 7639,
      "maux": 7640,
      "Tro": 7641,
      "1900": 7642,
      "couteau": 7643,
      "ul": 7644,
      "113": 7645,
      "émission": 7646,
      "capable": 7647,
      "1902": 7648,
      "courir": 7649,
      "anciennes": 7650,
      "minimum": 7651,
      "empar": 7652,
      "Pétersbourg": 7653,
      "tants": 7654,
      "##hr": 7655,
      "Bau": 7656,
      "chal": 7657,
      "sein": 7658,
      "##sign": 7659,
      "##rairie": 7660,
      "ceci": 7661,
      "rasse": 7662,
      "superbe": 7663,
      "étonn": 7664,
      "soutenir": 7665,
      "LY": 7666,
      "comport": 7667,
      "milliards": 7668,
      "pouvaient": 7669,
      "##ibles": 7670,
      "Université": 7671,
      "Faculté": 7672,
      "située": 7673,
      "suprême": 7674,
      "vête": 7675,
      "##my": 7676,
      "classi": 7677,
      "##BB": 7678,
      "souvenirs": 7679,
      "ché": 7680,
      "Eaux": 7681,
      "élus": 7682,
      "explications": 7683,
      "VENTE": 7684,
      "##ïque": 7685,
      "créé": 7686,
      "prononcer": 7687,
      "impérial": 7688,
      "réclame": 7689,
      "Parisien": 7690,
      "Prov": 7691,
      "madame": 7692,
      "conseillers": 7693,
      "arbres": 7694,
      "GR": 7695,
      "posséd": 7696,
      "naturelle": 7697,
      "électorale": 7698,
      "local": 7699,
      "consommation": 7700,
      "orgue": 7701,
      "ult": 7702,
      "##dies": 7703,
      "##ÉR": 7704,
      "ouvrières": 7705,
      "OFF": 7706,
      "conduis": 7707,
      "Do": 7708,
      "rité": 7709,
      "Cong": 7710,
      "ABONNE": 7711,
      "pouvez": 7712,
      "cip": 7713,
      "mee": 7714,
      "autorisation": 7715,
      "Len": 7716,
      "##ANCE": 7717,
      "affirm": 7718,
      "mant": 7719,
      "boî": 7720,
      "##endance": 7721,
      "monte": 7722,
      "##érait": 7723,
      "Blanche": 7724,
      "faisaient": 7725,
      "1930": 7726,
      "Foncier": 7727,
      "##ABLE": 7728,
      "élan": 7729,
      "compét": 7730,
      "117": 7731,
      "proposé": 7732,
      "prévoir": 7733,
      "tier": 7734,
      "impor": 7735,
      "SER": 7736,
      "##terie": 7737,
      "épous": 7738,
      "Cot": 7739,
      "Rouge": 7740,
      "charbon": 7741,
      "lion": 7742,
      "aurais": 7743,
      "simples": 7744,
      "aver": 7745,
      "##opol": 7746,
      "##ïn": 7747,
      "archite": 7748,
      "COMMER": 7749,
      "Leb": 7750,
      "vieilles": 7751,
      "interprét": 7752,
      "CHEM": 7753,
      "##Ul": 7754,
      "##ELLES": 7755,
      "grévistes": 7756,
      "480": 7757,
      "04": 7758,
      "traits": 7759,
      "Ouvert": 7760,
      "viande": 7761,
      "1903": 7762,
      "feuille": 7763,
      "##plus": 7764,
      "##chure": 7765,
      "œufs": 7766,
      "coûte": 7767,
      "envoi": 7768,
      "ol": 7769,
      "enn": 7770,
      "MON": 7771,
      "1906": 7772,
      "Rol": 7773,
      "Hy": 7774,
      "manquer": 7775,
      "pant": 7776,
      "210": 7777,
      "Ara": 7778,
      "COURS": 7779,
      "##bet": 7780,
      "Bur": 7781,
      "voulons": 7782,
      "##uls": 7783,
      "technique": 7784,
      "film": 7785,
      "prochainement": 7786,
      "dus": 7787,
      "Lem": 7788,
      "PROP": 7789,
      "doss": 7790,
      "Dr": 7791,
      "##êmes": 7792,
      "mie": 7793,
      "villa": 7794,
      "atelier": 7795,
      "##îs": 7796,
      "Gren": 7797,
      "porteur": 7798,
      "##obil": 7799,
      "représentations": 7800,
      "##LAN": 7801,
      "suscep": 7802,
      "Washington": 7803,
      "tante": 7804,
      "naître": 7805,
      "club": 7806,
      "ajouté": 7807,
      "intérieure": 7808,
      "foncier": 7809,
      "promis": 7810,
      "##rations": 7811,
      "fine": 7812,
      "crainte": 7813,
      "##cus": 7814,
      "labor": 7815,
      "interdit": 7816,
      "##fle": 7817,
      "sortes": 7818,
      "od": 7819,
      "observations": 7820,
      "Monte": 7821,
      "nomination": 7822,
      "amateurs": 7823,
      "##àn": 7824,
      "##érations": 7825,
      "deg": 7826,
      "sporti": 7827,
      "pompiers": 7828,
      "vacances": 7829,
      "Leg": 7830,
      "##AGNE": 7831,
      "anal": 7832,
      "sollic": 7833,
      "##cile": 7834,
      "chacune": 7835,
      "123": 7836,
      "Central": 7837,
      "##hum": 7838,
      "patrons": 7839,
      "Bré": 7840,
      "##cas": 7841,
      "Enf": 7842,
      "##oral": 7843,
      "bloc": 7844,
      "Nicolas": 7845,
      "##ër": 7846,
      "##ASS": 7847,
      "rouges": 7848,
      "payés": 7849,
      "évidemment": 7850,
      "prennent": 7851,
      "Claude": 7852,
      "roul": 7853,
      "##issier": 7854,
      "##ao": 7855,
      "rédi": 7856,
      "##neurs": 7857,
      "##GES": 7858,
      "jal": 7859,
      "judiciaire": 7860,
      "##agas": 7861,
      "##ÈS": 7862,
      "Camb": 7863,
      "légèrement": 7864,
      "##IONS": 7865,
      "Richel": 7866,
      "##fications": 7867,
      "##irait": 7868,
      "surveillance": 7869,
      "1933": 7870,
      "politi": 7871,
      "##jn": 7872,
      "remède": 7873,
      "Vl": 7874,
      "mée": 7875,
      "##dique": 7876,
      "##agner": 7877,
      "##olies": 7878,
      "voulut": 7879,
      "##dom": 7880,
      "collection": 7881,
      "million": 7882,
      "##aret": 7883,
      "accorder": 7884,
      "##outh": 7885,
      "doig": 7886,
      "Oct": 7887,
      "##TO": 7888,
      "gouvernements": 7889,
      "550": 7890,
      "deuil": 7891,
      "nombreuse": 7892,
      "Russes": 7893,
      "neige": 7894,
      "##lection": 7895,
      "philosoph": 7896,
      "tue": 7897,
      "dois": 7898,
      "objec": 7899,
      "savent": 7900,
      "fidèle": 7901,
      "##ado": 7902,
      "attendait": 7903,
      "pari": 7904,
      "nez": 7905,
      "précisément": 7906,
      "tén": 7907,
      "passa": 7908,
      "événement": 7909,
      "privée": 7910,
      "##itables": 7911,
      "portent": 7912,
      "Cond": 7913,
      "##iré": 7914,
      "métier": 7915,
      "##ouill": 7916,
      "canon": 7917,
      "dç": 7918,
      "sûreté": 7919,
      "##chon": 7920,
      "mœurs": 7921,
      "remplir": 7922,
      "##assent": 7923,
      "achat": 7924,
      "chapeau": 7925,
      "accro": 7926,
      "Laval": 7927,
      "tués": 7928,
      "122": 7929,
      "vier": 7930,
      "Comb": 7931,
      "##tivement": 7932,
      "rédacteur": 7933,
      "Affaires": 7934,
      "formule": 7935,
      "rembour": 7936,
      "considérables": 7937,
      "tranquille": 7938,
      "faiblesse": 7939,
      "Ur": 7940,
      "##omie": 7941,
      "célébré": 7942,
      "attra": 7943,
      "Camille": 7944,
      "650": 7945,
      "châ": 7946,
      "concier": 7947,
      "##amp": 7948,
      "lien": 7949,
      "##itch": 7950,
      "##ACE": 7951,
      "quelconque": 7952,
      "circonstance": 7953,
      "papiers": 7954,
      "230": 7955,
      "réserves": 7956,
      "confrère": 7957,
      "bruits": 7958,
      "parts": 7959,
      "succomb": 7960,
      "Justice": 7961,
      "contrib": 7962,
      "##ateau": 7963,
      "##urier": 7964,
      "verre": 7965,
      "compagnies": 7966,
      "laissant": 7967,
      "Sac": 7968,
      "mili": 7969,
      "Cau": 7970,
      "tiennent": 7971,
      "##tins": 7972,
      "##âtre": 7973,
      "##ourir": 7974,
      "##dem": 7975,
      "##cia": 7976,
      "persé": 7977,
      "##tige": 7978,
      "fidèles": 7979,
      "réclamer": 7980,
      "machines": 7981,
      "Tab": 7982,
      "découverte": 7983,
      "##bri": 7984,
      "canons": 7985,
      "spéciaux": 7986,
      "sid": 7987,
      "fre": 7988,
      "##erre": 7989,
      "colonie": 7990,
      "salaires": 7991,
      "Gamb": 7992,
      "Comique": 7993,
      "juges": 7994,
      "finale": 7995,
      "douzaine": 7996,
      "##ombre": 7997,
      "héros": 7998,
      "alco": 7999,
      "vaux": 8000,
      "Hollande": 8001,
      "émin": 8002,
      "dépit": 8003,
      "semb": 8004,
      "industriels": 8005,
      "engager": 8006,
      "escadre": 8007,
      "##omètre": 8008,
      "##istoire": 8009,
      "##CIER": 8010,
      "concent": 8011,
      "##hard": 8012,
      "sident": 8013,
      "##zi": 8014,
      "Richelieu": 8015,
      "##IERS": 8016,
      "##peaux": 8017,
      "##èmes": 8018,
      "Sè": 8019,
      "##rud": 8020,
      "chron": 8021,
      "Capit": 8022,
      "Pie": 8023,
      "Os": 8024,
      "Etabl": 8025,
      "VO": 8026,
      "engagement": 8027,
      "##itte": 8028,
      "Turc": 8029,
      "fir": 8030,
      "Tours": 8031,
      "bâtiments": 8032,
      "empress": 8033,
      "TE": 8034,
      "équipage": 8035,
      "##mages": 8036,
      "affirmer": 8037,
      "##ayette": 8038,
      "sortant": 8039,
      "blessures": 8040,
      "Portugais": 8041,
      "vraie": 8042,
      "clergé": 8043,
      "apprendre": 8044,
      "##iS": 8045,
      "lus": 8046,
      "manche": 8047,
      "Lev": 8048,
      "Mén": 8049,
      "failli": 8050,
      "Caill": 8051,
      "sociales": 8052,
      "paral": 8053,
      "tré": 8054,
      "nion": 8055,
      "transfor": 8056,
      "indépendance": 8057,
      "rivière": 8058,
      "Celle": 8059,
      "aspect": 8060,
      "Lamb": 8061,
      "Ici": 8062,
      "Roch": 8063,
      "éché": 8064,
      "choisi": 8065,
      "##ùr": 8066,
      "Sû": 8067,
      "amie": 8068,
      "##UST": 8069,
      "BR": 8070,
      "tète": 8071,
      "agissait": 8072,
      "équipes": 8073,
      "Vincent": 8074,
      "Las": 8075,
      "##tueux": 8076,
      "mobile": 8077,
      "lue": 8078,
      "observer": 8079,
      "références": 8080,
      "Alph": 8081,
      "510": 8082,
      "recons": 8083,
      "finit": 8084,
      "appartement": 8085,
      "départe": 8086,
      "humaine": 8087,
      "comprenant": 8088,
      "##ep": 8089,
      "trah": 8090,
      "##ventions": 8091,
      "rendit": 8092,
      "dl": 8093,
      "Sil": 8094,
      "jj": 8095,
      "unes": 8096,
      "Petite": 8097,
      "prouver": 8098,
      "Cad": 8099,
      "Rousseau": 8100,
      "étendue": 8101,
      "conclusions": 8102,
      "dot": 8103,
      "##ïï": 8104,
      "flot": 8105,
      "Raymond": 8106,
      "rétabl": 8107,
      "##aure": 8108,
      "battre": 8109,
      "manifestations": 8110,
      "lèvres": 8111,
      "##oste": 8112,
      "sure": 8113,
      "alliance": 8114,
      "##ALES": 8115,
      "##érons": 8116,
      "1879": 8117,
      "explosion": 8118,
      "TR": 8119,
      "pê": 8120,
      "émouv": 8121,
      "Gil": 8122,
      "billet": 8123,
      "NOUV": 8124,
      "accompli": 8125,
      "recru": 8126,
      "##aisembl": 8127,
      "Alli": 8128,
      "désigné": 8129,
      "dépêches": 8130,
      "prouve": 8131,
      "ordonnance": 8132,
      "rêve": 8133,
      "##sen": 8134,
      "élever": 8135,
      "Sol": 8136,
      "suivie": 8137,
      "##uée": 8138,
      "1912": 8139,
      "Messager": 8140,
      "matières": 8141,
      "##ressions": 8142,
      "incidents": 8143,
      "sensation": 8144,
      "organiser": 8145,
      "##prés": 8146,
      "ventes": 8147,
      "##angers": 8148,
      "guéris": 8149,
      "RI": 8150,
      "##rans": 8151,
      "aperce": 8152,
      "naire": 8153,
      "craindre": 8154,
      "chaussée": 8155,
      "signalé": 8156,
      "mobilier": 8157,
      "pn": 8158,
      "mélan": 8159,
      "sta": 8160,
      "préparation": 8161,
      "1934": 8162,
      "##DES": 8163,
      "atm": 8164,
      "catastro": 8165,
      "tirage": 8166,
      "##èdent": 8167,
      "vement": 8168,
      "habi": 8169,
      "Miss": 8170,
      "##AIT": 8171,
      "Eclair": 8172,
      "tex": 8173,
      "fortes": 8174,
      "ho": 8175,
      "conclusion": 8176,
      "affect": 8177,
      "bœu": 8178,
      "interpell": 8179,
      "rappelé": 8180,
      "remplacer": 8181,
      "asc": 8182,
      "retourn": 8183,
      "114": 8184,
      "amener": 8185,
      "Nationale": 8186,
      "personnages": 8187,
      "scènes": 8188,
      "##atoires": 8189,
      "BO": 8190,
      "organe": 8191,
      "élément": 8192,
      "continuent": 8193,
      "Pâ": 8194,
      "rs": 8195,
      "Constantinople": 8196,
      "##vl": 8197,
      "patrio": 8198,
      "anc": 8199,
      "Rab": 8200,
      "dangereux": 8201,
      "paille": 8202,
      "Six": 8203,
      "danse": 8204,
      "accusation": 8205,
      "##ardins": 8206,
      "Inst": 8207,
      "##65": 8208,
      "om": 8209,
      "##ês": 8210,
      "JOURNAL": 8211,
      "Pin": 8212,
      "chasseurs": 8213,
      "coiff": 8214,
      "##étaires": 8215,
      "boute": 8216,
      "Presse": 8217,
      "##mbert": 8218,
      "agence": 8219,
      "fabrique": 8220,
      "agricoles": 8221,
      "Empereur": 8222,
      "Pel": 8223,
      "composition": 8224,
      "##reuse": 8225,
      "##itent": 8226,
      "voyait": 8227,
      "fenêtre": 8228,
      "échec": 8229,
      "Cro": 8230,
      "cla": 8231,
      "##orn": 8232,
      "destinée": 8233,
      "##KS": 8234,
      "combattants": 8235,
      "çaise": 8236,
      "édition": 8237,
      "aider": 8238,
      "urgence": 8239,
      "souci": 8240,
      "ANNON": 8241,
      "achats": 8242,
      "arrête": 8243,
      "##tiennent": 8244,
      "##CC": 8245,
      "##érienne": 8246,
      "prendra": 8247,
      "semblent": 8248,
      "##rions": 8249,
      "Vos": 8250,
      "catégorie": 8251,
      "##ief": 8252,
      "remercie": 8253,
      "470": 8254,
      "pommes": 8255,
      "person": 8256,
      "##ainement": 8257,
      "intéressante": 8258,
      "rage": 8259,
      "Mort": 8260,
      "universel": 8261,
      "manifeste": 8262,
      "Res": 8263,
      "industriel": 8264,
      "nullement": 8265,
      "léger": 8266,
      "discus": 8267,
      "Comptoir": 8268,
      "toit": 8269,
      "allure": 8270,
      "Camp": 8271,
      "##ître": 8272,
      "caisses": 8273,
      "sacs": 8274,
      "Marine": 8275,
      "Na": 8276,
      "diminution": 8277,
      "mineurs": 8278,
      "Normandie": 8279,
      "##èn": 8280,
      "490": 8281,
      "DIV": 8282,
      "Luxe": 8283,
      "Cinq": 8284,
      "240": 8285,
      "lune": 8286,
      "Az": 8287,
      "régi": 8288,
      "souscription": 8289,
      "##ulation": 8290,
      "historique": 8291,
      "dignité": 8292,
      "119": 8293,
      "malfai": 8294,
      "Cu": 8295,
      "1923": 8296,
      "sés": 8297,
      "Parisiens": 8298,
      "##abilités": 8299,
      "lle": 8300,
      "Vendre": 8301,
      "Pant": 8302,
      "##bu": 8303,
      "ling": 8304,
      "annuel": 8305,
      "##àl": 8306,
      "chante": 8307,
      "CV": 8308,
      "##oudre": 8309,
      "410": 8310,
      "murm": 8311,
      "##PS": 8312,
      "moteur": 8313,
      "Angers": 8314,
      "meilleures": 8315,
      "fallu": 8316,
      "los": 8317,
      "cien": 8318,
      "Men": 8319,
      "Jés": 8320,
      "Arn": 8321,
      "Maint": 8322,
      "provinces": 8323,
      "GAR": 8324,
      "Fra": 8325,
      "Gabriel": 8326,
      "Malo": 8327,
      "transports": 8328,
      "Rec": 8329,
      "##ture": 8330,
      "Gold": 8331,
      "Conférence": 8332,
      "##nellement": 8333,
      "concurrents": 8334,
      "haine": 8335,
      "Etude": 8336,
      "actionnaires": 8337,
      "##ical": 8338,
      "nau": 8339,
      "savons": 8340,
      "sar": 8341,
      "dioc": 8342,
      "larmes": 8343,
      "##oissons": 8344,
      "##rc": 8345,
      "prévenir": 8346,
      "##hal": 8347,
      "atteinte": 8348,
      "connus": 8349,
      "fixer": 8350,
      "##del": 8351,
      "choc": 8352,
      "Rem": 8353,
      "cordi": 8354,
      "nobles": 8355,
      "honnête": 8356,
      "physique": 8357,
      "Clo": 8358,
      "##cessions": 8359,
      "1898": 8360,
      "##rois": 8361,
      "##mie": 8362,
      "adhé": 8363,
      "##ands": 8364,
      "reli": 8365,
      "tat": 8366,
      "ara": 8367,
      "poursuivi": 8368,
      "Duf": 8369,
      "direct": 8370,
      "donnés": 8371,
      "dif": 8372,
      "AT": 8373,
      "##olique": 8374,
      "mécanicien": 8375,
      "printemps": 8376,
      "Déb": 8377,
      "MAL": 8378,
      "saisi": 8379,
      "cier": 8380,
      "salles": 8381,
      "Vin": 8382,
      "conversation": 8383,
      "informations": 8384,
      "Roumanie": 8385,
      "tenus": 8386,
      "##ader": 8387,
      "prêtre": 8388,
      "CAR": 8389,
      "##onies": 8390,
      "Lot": 8391,
      "consult": 8392,
      "nage": 8393,
      "nationaux": 8394,
      "oeu": 8395,
      "tonne": 8396,
      "##ila": 8397,
      "Die": 8398,
      "1892": 8399,
      "manœuvre": 8400,
      "intég": 8401,
      "1890": 8402,
      "1931": 8403,
      "clos": 8404,
      "121": 8405,
      "##bel": 8406,
      "Brun": 8407,
      "vén": 8408,
      "430": 8409,
      "Louvre": 8410,
      "##uitement": 8411,
      "totale": 8412,
      "faculté": 8413,
      "particuliers": 8414,
      "décisions": 8415,
      "sert": 8416,
      "parisien": 8417,
      "monnaie": 8418,
      "îi": 8419,
      "##inière": 8420,
      "rit": 8421,
      "mystérie": 8422,
      "levée": 8423,
      "##ouille": 8424,
      "troubles": 8425,
      "commencer": 8426,
      "Dunker": 8427,
      "lever": 8428,
      "##lymp": 8429,
      "allons": 8430,
      "amélioration": 8431,
      "artistique": 8432,
      "##UU": 8433,
      "précises": 8434,
      "Pans": 8435,
      "fermeté": 8436,
      "mention": 8437,
      "flu": 8438,
      "satisfais": 8439,
      "bulletin": 8440,
      "PO": 8441,
      "##ham": 8442,
      "##ÉTÉ": 8443,
      "aimer": 8444,
      "tellement": 8445,
      "indiff": 8446,
      "nulle": 8447,
      "disparaître": 8448,
      "mass": 8449,
      "voyez": 8450,
      "sut": 8451,
      "##ustave": 8452,
      "##ilibre": 8453,
      "##MA": 8454,
      "intelligence": 8455,
      "##ffl": 8456,
      "##uri": 8457,
      "héri": 8458,
      "nait": 8459,
      "étudiants": 8460,
      "Mand": 8461,
      "##MBRE": 8462,
      "clo": 8463,
      "directeurs": 8464,
      "brillante": 8465,
      "##sis": 8466,
      "abonne": 8467,
      "préoccup": 8468,
      "dure": 8469,
      "communiste": 8470,
      "changer": 8471,
      "##ister": 8472,
      "##pins": 8473,
      "reux": 8474,
      "145": 8475,
      "Fréd": 8476,
      "extrait": 8477,
      "recon": 8478,
      "Travail": 8479,
      "poursuivre": 8480,
      "Générale": 8481,
      "romp": 8482,
      "étudier": 8483,
      "souli": 8484,
      "280": 8485,
      "##bur": 8486,
      "##istère": 8487,
      "inscrit": 8488,
      "Edmond": 8489,
      "han": 8490,
      "Ob": 8491,
      "fréquent": 8492,
      "FON": 8493,
      "oublié": 8494,
      "motif": 8495,
      "475": 8496,
      "minute": 8497,
      "##geant": 8498,
      "##iels": 8499,
      "Gustave": 8500,
      "réflé": 8501,
      "sonn": 8502,
      "1904": 8503,
      "chien": 8504,
      "finir": 8505,
      "pénible": 8506,
      "##ones": 8507,
      "##iène": 8508,
      "instructions": 8509,
      "Sociétés": 8510,
      "exprimé": 8511,
      "îles": 8512,
      "absor": 8513,
      "National": 8514,
      "##fes": 8515,
      "Rev": 8516,
      "brave": 8517,
      "promp": 8518,
      "Bac": 8519,
      "rez": 8520,
      "misère": 8521,
      "degré": 8522,
      "ua": 8523,
      "pin": 8524,
      "vag": 8525,
      "garnison": 8526,
      "protestation": 8527,
      "lourde": 8528,
      "abri": 8529,
      "lns": 8530,
      "##ffet": 8531,
      "##iliation": 8532,
      "1899": 8533,
      "##lié": 8534,
      "réu": 8535,
      "##iosité": 8536,
      "##unal": 8537,
      "##orce": 8538,
      "Sain": 8539,
      "Drey": 8540,
      "460": 8541,
      "1918": 8542,
      "zone": 8543,
      "normale": 8544,
      "133": 8545,
      "occupation": 8546,
      "Ret": 8547,
      "étal": 8548,
      "bijoux": 8549,
      "Arth": 8550,
      "sug": 8551,
      "réelle": 8552,
      "procurer": 8553,
      "Industrie": 8554,
      "##atie": 8555,
      "##ull": 8556,
      "RENNES": 8557,
      "mem": 8558,
      "##illage": 8559,
      "utiles": 8560,
      "inconnu": 8561,
      "porteurs": 8562,
      "Voit": 8563,
      "royal": 8564,
      "fruits": 8565,
      "électrique": 8566,
      "légitime": 8567,
      "CHAR": 8568,
      "devoirs": 8569,
      "colonne": 8570,
      "##bation": 8571,
      "partisans": 8572,
      "##hen": 8573,
      "publicité": 8574,
      "##actions": 8575,
      "Tel": 8576,
      "atten": 8577,
      "Centre": 8578,
      "métho": 8579,
      "BON": 8580,
      "touche": 8581,
      "constate": 8582,
      "##ernation": 8583,
      "Pet": 8584,
      "JEU": 8585,
      "cb": 8586,
      "dirigé": 8587,
      "##ive": 8588,
      "enseigne": 8589,
      "distrib": 8590,
      "##rel": 8591,
      "131": 8592,
      "Gouver": 8593,
      "discuter": 8594,
      "réparations": 8595,
      "dres": 8596,
      "Réunion": 8597,
      "transform": 8598,
      "évê": 8599,
      "assass": 8600,
      "augmenter": 8601,
      "Vari": 8602,
      "##aillé": 8603,
      "combattre": 8604,
      "##pture": 8605,
      "Pil": 8606,
      "accès": 8607,
      "##hl": 8608,
      "néanmoins": 8609,
      "déposer": 8610,
      "matel": 8611,
      "éman": 8612,
      "mérit": 8613,
      "iii": 8614,
      "##organ": 8615,
      "Comte": 8616,
      "Mu": 8617,
      "Châ": 8618,
      "destinées": 8619,
      "##éries": 8620,
      "Jane": 8621,
      "Dépar": 8622,
      "Viv": 8623,
      "locaux": 8624,
      "désas": 8625,
      "225": 8626,
      "pronon": 8627,
      "1924": 8628,
      "annivers": 8629,
      "Ap": 8630,
      "seil": 8631,
      "demandait": 8632,
      "beurre": 8633,
      "bât": 8634,
      "parlant": 8635,
      "##■■": 8636,
      "enthousiasme": 8637,
      "Inc": 8638,
      "Fleur": 8639,
      "puissant": 8640,
      "indign": 8641,
      "détruit": 8642,
      "##odr": 8643,
      "chinois": 8644,
      "Picard": 8645,
      "SOCI": 8646,
      "directe": 8647,
      "##gny": 8648,
      "flacon": 8649,
      "Change": 8650,
      "porcs": 8651,
      "exercer": 8652,
      "##uation": 8653,
      "destiné": 8654,
      "CONS": 8655,
      "demandent": 8656,
      "fê": 8657,
      "longs": 8658,
      "lance": 8659,
      "TOUS": 8660,
      "vivant": 8661,
      "##har": 8662,
      "bert": 8663,
      "stock": 8664,
      "MER": 8665,
      "US": 8666,
      "##lor": 8667,
      "relativement": 8668,
      "tours": 8669,
      "cation": 8670,
      "##stes": 8671,
      "toilette": 8672,
      "##gées": 8673,
      "produite": 8674,
      "forêt": 8675,
      "##tille": 8676,
      "conclut": 8677,
      "distingu": 8678,
      "##tii": 8679,
      "malheureuse": 8680,
      "rée": 8681,
      "prenait": 8682,
      "merce": 8683,
      "primes": 8684,
      "Maz": 8685,
      "##onté": 8686,
      "##mique": 8687,
      "1919": 8688,
      "uniquement": 8689,
      "iM": 8690,
      "adversaire": 8691,
      "Office": 8692,
      "VE": 8693,
      "##sière": 8694,
      "paquet": 8695,
      "excep": 8696,
      "trouvera": 8697,
      "Hau": 8698,
      "Syndicat": 8699,
      "croyait": 8700,
      "dô": 8701,
      "longueurs": 8702,
      "dégâts": 8703,
      "hautes": 8704,
      "Grâce": 8705,
      "charmante": 8706,
      "certes": 8707,
      "réflex": 8708,
      "réformes": 8709,
      "FOND": 8710,
      "chapelle": 8711,
      "prospérité": 8712,
      "##ormément": 8713,
      "invi": 8714,
      "paraissent": 8715,
      "##ifiques": 8716,
      "coupe": 8717,
      "Francis": 8718,
      "##illa": 8719,
      "##acé": 8720,
      "##VI": 8721,
      "routes": 8722,
      "paraissait": 8723,
      "changé": 8724,
      "échapper": 8725,
      "admir": 8726,
      "vide": 8727,
      "littéraire": 8728,
      "Cb": 8729,
      "Lord": 8730,
      "COR": 8731,
      "ateliers": 8732,
      "apprenons": 8733,
      "##rature": 8734,
      "indigènes": 8735,
      "Alb": 8736,
      "Ii": 8737,
      "dc": 8738,
      "ine": 8739,
      "interromp": 8740,
      "sport": 8741,
      "##lène": 8742,
      "Gros": 8743,
      "420": 8744,
      "siècles": 8745,
      "Rib": 8746,
      "aér": 8747,
      "officiels": 8748,
      "distribu": 8749,
      "innoc": 8750,
      "personnage": 8751,
      "restera": 8752,
      "##itié": 8753,
      "John": 8754,
      "Reims": 8755,
      "pon": 8756,
      "quelqu": 8757,
      "Oli": 8758,
      "##Si": 8759,
      "syndicale": 8760,
      "##cis": 8761,
      "adhés": 8762,
      "chauffeur": 8763,
      "marchés": 8764,
      "considérer": 8765,
      "##oz": 8766,
      "drapeaux": 8767,
      "van": 8768,
      "##oyés": 8769,
      "scandale": 8770,
      "infor": 8771,
      "Ors": 8772,
      "comique": 8773,
      "##LLE": 8774,
      "intéressés": 8775,
      "îa": 8776,
      "Rente": 8777,
      "Coupe": 8778,
      "##RIER": 8779,
      "Rouss": 8780,
      "difficulté": 8781,
      "angle": 8782,
      "justement": 8783,
      "camb": 8784,
      "Metz": 8785,
      "qù": 8786,
      "domestique": 8787,
      "##ervatoire": 8788,
      "atmosph": 8789,
      "Panama": 8790,
      "saire": 8791,
      "cercle": 8792,
      "fisc": 8793,
      "440": 8794,
      "##dl": 8795,
      "Jan": 8796,
      "330": 8797,
      "foyer": 8798,
      "voudrait": 8799,
      "##àt": 8800,
      "380": 8801,
      "ANNONCES": 8802,
      "155": 8803,
      "trot": 8804,
      "statue": 8805,
      "##ûte": 8806,
      "Mur": 8807,
      "fasse": 8808,
      "dessins": 8809,
      "poudre": 8810,
      "##uels": 8811,
      "Ji": 8812,
      "520": 8813,
      "##lers": 8814,
      "Pier": 8815,
      "teau": 8816,
      "employer": 8817,
      "##oris": 8818,
      "déroul": 8819,
      "scol": 8820,
      "profiter": 8821,
      "##AINE": 8822,
      "Bureau": 8823,
      "charme": 8824,
      "##uine": 8825,
      "gas": 8826,
      "##déon": 8827,
      "ani": 8828,
      "destination": 8829,
      "##ératrice": 8830,
      "pruss": 8831,
      "##tig": 8832,
      "Gé": 8833,
      "Juge": 8834,
      "annoncer": 8835,
      "Où": 8836,
      "condamnés": 8837,
      "doct": 8838,
      "Fre": 8839,
      "tac": 8840,
      "impré": 8841,
      "MÉ": 8842,
      "##menceau": 8843,
      "extérieure": 8844,
      "entr": 8845,
      "##rimés": 8846,
      "##mè": 8847,
      "économiques": 8848,
      "##arte": 8849,
      "indique": 8850,
      "din": 8851,
      "formid": 8852,
      "jugé": 8853,
      "sentir": 8854,
      "musée": 8855,
      "jusque": 8856,
      "apporte": 8857,
      "##jl": 8858,
      "132": 8859,
      "Hou": 8860,
      "##urait": 8861,
      "EMP": 8862,
      "##aillard": 8863,
      "LOU": 8864,
      "concierge": 8865,
      "pins": 8866,
      "Mul": 8867,
      "##rac": 8868,
      "marques": 8869,
      "plant": 8870,
      "Oran": 8871,
      "mâ": 8872,
      "Majesté": 8873,
      "##ïl": 8874,
      "prévu": 8875,
      "Salle": 8876,
      "humanité": 8877,
      "offres": 8878,
      "semblable": 8879,
      "diplomatique": 8880,
      "Temple": 8881,
      "##enses": 8882,
      "##isations": 8883,
      "poche": 8884,
      "dest": 8885,
      "comé": 8886,
      "contrat": 8887,
      "violon": 8888,
      "attaqué": 8889,
      "Cert": 8890,
      "américains": 8891,
      "dict": 8892,
      "générales": 8893,
      "commissions": 8894,
      "Cant": 8895,
      "360": 8896,
      "provenant": 8897,
      "modernes": 8898,
      "enlever": 8899,
      "Cath": 8900,
      "##ômes": 8901,
      "##ouff": 8902,
      "##éc": 8903,
      "##TIQUE": 8904,
      "1929": 8905,
      "paysans": 8906,
      "réservé": 8907,
      "##gres": 8908,
      "Cy": 8909,
      "rédaction": 8910,
      "1907": 8911,
      "anniversaire": 8912,
      "Jaur": 8913,
      "acheteurs": 8914,
      "gravité": 8915,
      "envoyés": 8916,
      "Œu": 8917,
      "##ros": 8918,
      "prot": 8919,
      "1927": 8920,
      "lnt": 8921,
      "représen": 8922,
      "Tre": 8923,
      "##ary": 8924,
      "rond": 8925,
      "##hib": 8926,
      "Place": 8927,
      "aig": 8928,
      "##ignan": 8929,
      "dons": 8930,
      "dividende": 8931,
      "pensé": 8932,
      "##hou": 8933,
      "Times": 8934,
      "Moi": 8935,
      "accordé": 8936,
      "communistes": 8937,
      "tien": 8938,
      "##isent": 8939,
      "##ographe": 8940,
      "enfer": 8941,
      "plén": 8942,
      "aventure": 8943,
      "brillant": 8944,
      "Gare": 8945,
      "volumes": 8946,
      "théâtres": 8947,
      "livr": 8948,
      "##andes": 8949,
      "sovié": 8950,
      "##AGN": 8951,
      "##dict": 8952,
      "ROU": 8953,
      "demandés": 8954,
      "Eau": 8955,
      "devenue": 8956,
      "179": 8957,
      "Téléph": 8958,
      "EXP": 8959,
      "Ext": 8960,
      "gren": 8961,
      "##nais": 8962,
      "Nou": 8963,
      "établis": 8964,
      "sérieuses": 8965,
      "Rel": 8966,
      "saut": 8967,
      "restait": 8968,
      "##rot": 8969,
      "PARTI": 8970,
      "engagé": 8971,
      "Ts": 8972,
      "Heure": 8973,
      "persu": 8974,
      "##oisson": 8975,
      "##ifié": 8976,
      "##issable": 8977,
      "Mardi": 8978,
      "écart": 8979,
      "commerçants": 8980,
      "assassinat": 8981,
      "##itz": 8982,
      "Mexique": 8983,
      "populations": 8984,
      "nommer": 8985,
      "Obligations": 8986,
      "institutions": 8987,
      "260": 8988,
      "nè": 8989,
      "fes": 8990,
      "tiendra": 8991,
      "réci": 8992,
      "Magn": 8993,
      "##ico": 8994,
      "degrés": 8995,
      "écrivain": 8996,
      "##ows": 8997,
      "conférences": 8998,
      "coucher": 8999,
      "preuves": 9000,
      "##OUVE": 9001,
      "Gaul": 9002,
      "gratuitement": 9003,
      "poign": 9004,
      "évo": 9005,
      "assurances": 9006,
      "imposer": 9007,
      "Suc": 9008,
      "##maine": 9009,
      "couronne": 9010,
      "IND": 9011,
      "fourni": 9012,
      "##itt": 9013,
      "espagnole": 9014,
      "constituer": 9015,
      "instants": 9016,
      "insuffis": 9017,
      "##aste": 9018,
      "Portugal": 9019,
      "indemnité": 9020,
      "##umine": 9021,
      "capitaux": 9022,
      "lies": 9023,
      "décider": 9024,
      "##tiles": 9025,
      "idéal": 9026,
      "##DER": 9027,
      "renfor": 9028,
      "maintenu": 9029,
      "HE": 9030,
      "fournit": 9031,
      "quinzaine": 9032,
      "tère": 9033,
      "Doc": 9034,
      "Gard": 9035,
      "tantôt": 9036,
      "viend": 9037,
      "##arti": 9038,
      "Ul": 9039,
      "##IX": 9040,
      "515": 9041,
      "inconv": 9042,
      "Indo": 9043,
      "tarifs": 9044,
      "ler1": 9045,
      "terminer": 9046,
      "abonnés": 9047,
      "pois": 9048,
      "##rats": 9049,
      "##ruption": 9050,
      "essayé": 9051,
      "bol": 9052,
      "reconnaît": 9053,
      "Devant": 9054,
      "diam": 9055,
      "PLUS": 9056,
      "merveilleux": 9057,
      "pierres": 9058,
      "italiens": 9059,
      "PER": 9060,
      "exclusivement": 9061,
      "##lla": 9062,
      "David": 9063,
      "extrêmement": 9064,
      "##ALL": 9065,
      "pend": 9066,
      "collège": 9067,
      "fémin": 9068,
      "##astique": 9069,
      "appliquer": 9070,
      "Augus": 9071,
      "Gri": 9072,
      "tive": 9073,
      "gi": 9074,
      "marchands": 9075,
      "équilibre": 9076,
      "fri": 9077,
      "Ach": 9078,
      "##resser": 9079,
      "vêtements": 9080,
      "Calv": 9081,
      "Magas": 9082,
      "##heure": 9083,
      "vives": 9084,
      "faç": 9085,
      "##mité": 9086,
      "##uie": 9087,
      "##quera": 9088,
      "archevêque": 9089,
      "##oment": 9090,
      "aigu": 9091,
      "supplé": 9092,
      "1888": 9093,
      "demandant": 9094,
      "profondément": 9095,
      "escompte": 9096,
      "CAP": 9097,
      "##tibles": 9098,
      "Suzanne": 9099,
      "##dan": 9100,
      "##ressement": 9101,
      "eur": 9102,
      "ajouta": 9103,
      "professeurs": 9104,
      "COUR": 9105,
      "éco": 9106,
      "jambes": 9107,
      "mol": 9108,
      "rendue": 9109,
      "vaches": 9110,
      "Dec": 9111,
      "320": 9112,
      "##assa": 9113,
      "Vis": 9114,
      "commerciale": 9115,
      "refuse": 9116,
      "allez": 9117,
      "##ene": 9118,
      "modèles": 9119,
      "réunira": 9120,
      "jn": 9121,
      "Lorient": 9122,
      "exacte": 9123,
      "Aucun": 9124,
      "sel": 9125,
      "##rimerie": 9126,
      "ANG": 9127,
      "Pyré": 9128,
      "naiss": 9129,
      "505": 9130,
      "cart": 9131,
      "Jes": 9132,
      "Wag": 9133,
      "pous": 9134,
      "1928": 9135,
      "cultivateur": 9136,
      "##aiser": 9137,
      "##mc": 9138,
      "litres": 9139,
      "entrevue": 9140,
      "considération": 9141,
      "galerie": 9142,
      "Directeur": 9143,
      "COMPT": 9144,
      "##ild": 9145,
      "considère": 9146,
      "##viendra": 9147,
      "blés": 9148,
      "##lre": 9149,
      "réduits": 9150,
      "##ores": 9151,
      "##ulte": 9152,
      "##mel": 9153,
      "souri": 9154,
      "partant": 9155,
      "loyer": 9156,
      "Pav": 9157,
      "NO": 9158,
      "##ranch": 9159,
      "##lat": 9160,
      "Luxembourg": 9161,
      "Ast": 9162,
      "impose": 9163,
      "domin": 9164,
      "péril": 9165,
      "huile": 9166,
      "office": 9167,
      "bienfais": 9168,
      "MAN": 9169,
      "spéciales": 9170,
      "découvrir": 9171,
      "##hel": 9172,
      "##bo": 9173,
      "statis": 9174,
      "sible": 9175,
      "différence": 9176,
      "##énom": 9177,
      "volontiers": 9178,
      "intelle": 9179,
      "Drouot": 9180,
      "Fo": 9181,
      "1901": 9182,
      "Sel": 9183,
      "##issaient": 9184,
      "##alt": 9185,
      "inscrits": 9186,
      "##çu": 9187,
      "gan": 9188,
      "placement": 9189,
      "Clément": 9190,
      "##dice": 9191,
      "îe": 9192,
      "conti": 9193,
      "Gour": 9194,
      "Révolution": 9195,
      "profes": 9196,
      "incont": 9197,
      "maritimes": 9198,
      "##AH": 9199,
      "gras": 9200,
      "MONT": 9201,
      "phrase": 9202,
      "épuis": 9203,
      "JE": 9204,
      "municipaux": 9205,
      "répétition": 9206,
      "ridi": 9207,
      "efficace": 9208,
      "agitation": 9209,
      "chiens": 9210,
      "principale": 9211,
      "satisfait": 9212,
      "présentation": 9213,
      "dollars": 9214,
      "##giène": 9215,
      "fonde": 9216,
      "165": 9217,
      "sai": 9218,
      "vail": 9219,
      "sainte": 9220,
      "Chris": 9221,
      "##aco": 9222,
      "apporté": 9223,
      "personnalités": 9224,
      "375": 9225,
      "Provence": 9226,
      "noirs": 9227,
      "##cesseur": 9228,
      "mau": 9229,
      "Etoile": 9230,
      "notes": 9231,
      "tente": 9232,
      "Hor": 9233,
      "religieuses": 9234,
      "##vages": 9235,
      "fasc": 9236,
      "Durand": 9237,
      "certific": 9238,
      "rendez": 9239,
      "choisir": 9240,
      "solde": 9241,
      "voisine": 9242,
      "##umer": 9243,
      "BU": 9244,
      "pèler": 9245,
      "1925": 9246,
      "Vé": 9247,
      "concurrence": 9248,
      "cun": 9249,
      "Dreyfus": 9250,
      "élevés": 9251,
      "culte": 9252,
      "Vendredi": 9253,
      "1926": 9254,
      "commu": 9255,
      "réquis": 9256,
      "lO": 9257,
      "##fés": 9258,
      "310": 9259,
      "entrepre": 9260,
      "associations": 9261,
      "niveau": 9262,
      "##voy": 9263,
      "indiqué": 9264,
      "hâte": 9265,
      "Omnibus": 9266,
      "##atures": 9267,
      "prévenu": 9268,
      "extérieur": 9269,
      "Chemin": 9270,
      "##pro": 9271,
      "fondé": 9272,
      "retrouvé": 9273,
      "Déjà": 9274,
      "nus": 9275,
      "Julien": 9276,
      "immeuble": 9277,
      "rendra": 9278,
      "représenter": 9279,
      "##agné": 9280,
      "pape": 9281,
      "plume": 9282,
      "présents": 9283,
      "##tis": 9284,
      "1855": 9285,
      "inculp": 9286,
      "bicycle": 9287,
      "indiquer": 9288,
      "sucre": 9289,
      "tomba": 9290,
      "atteign": 9291,
      "propriétés": 9292,
      "##ardi": 9293,
      "invo": 9294,
      "##dun": 9295,
      "Dunkerque": 9296,
      "excès": 9297,
      "municipale": 9298,
      "##ISSE": 9299,
      "Naples": 9300,
      "Fernand": 9301,
      "charité": 9302,
      "proven": 9303,
      "##IF": 9304,
      "entreprises": 9305,
      "VALE": 9306,
      "##oble": 9307,
      "##MM": 9308,
      "revenus": 9309,
      "précédente": 9310,
      "Fonds": 9311,
      "Bos": 9312,
      "Dail": 9313,
      "portefeuille": 9314,
      "uno": 9315,
      "suffrage": 9316,
      "tâ": 9317,
      "##agés": 9318,
      "##vation": 9319,
      "exprimer": 9320,
      "##ÉRI": 9321,
      "Parc": 9322,
      "Service": 9323,
      "Armand": 9324,
      "délit": 9325,
      "intime": 9326,
      "sanc": 9327,
      "taient": 9328,
      "quint": 9329,
      "épouv": 9330,
      "Fort": 9331,
      "ath": 9332,
      "##obile": 9333,
      "âmes": 9334,
      "verse": 9335,
      "1911": 9336,
      "Paix": 9337,
      "relatives": 9338,
      "tristes": 9339,
      "solide": 9340,
      "accidents": 9341,
      "toucher": 9342,
      "batt": 9343,
      "asi": 9344,
      "solu": 9345,
      "##cheur": 9346,
      "juri": 9347,
      "pun": 9348,
[...]
